{
  "version": "1.0",
  "truncation": null,
  "padding": null,
  "added_tokens": [
    {
      "id": 0,
      "content": "[PAD]",
      "single_word": false,
      "lstrip": false,
      "rstrip": false,
      "normalized": false,
      "special": true
    },
    {
      "id": 1,
      "content": "[UNK]",
      "single_word": false,
      "lstrip": false,
      "rstrip": false,
      "normalized": false,
      "special": true
    },
    {
      "id": 2,
      "content": "[BOS]",
      "single_word": false,
      "lstrip": false,
      "rstrip": false,
      "normalized": false,
      "special": true
    },
    {
      "id": 3,
      "content": "[EOS]",
      "single_word": false,
      "lstrip": false,
      "rstrip": false,
      "normalized": false,
      "special": true
    }
  ],
  "normalizer": null,
  "pre_tokenizer": {
    "type": "ByteLevel",
    "add_prefix_space": true,
    "trim_offsets": true,
    "use_regex": true
  },
  "post_processor": null,
  "decoder": {
    "type": "ByteLevel",
    "add_prefix_space": true,
    "trim_offsets": true,
    "use_regex": true
  },
  "model": {
    "type": "BPE",
    "dropout": null,
    "unk_token": "[UNK]",
    "continuing_subword_prefix": null,
    "end_of_word_suffix": null,
    "fuse_unk": false,
    "byte_fallback": false,
    "ignore_merges": false,
    "vocab": {
      "[PAD]": 0,
      "[UNK]": 1,
      "[BOS]": 2,
      "[EOS]": 3,
      "!": 4,
      "\"": 5,
      "$": 6,
      "&": 7,
      "'": 8,
      "(": 9,
      ")": 10,
      "*": 11,
      "+": 12,
      ",": 13,
      "-": 14,
      ".": 15,
      "/": 16,
      "0": 17,
      "1": 18,
      "2": 19,
      "3": 20,
      "4": 21,
      "5": 22,
      "6": 23,
      "7": 24,
      "8": 25,
      "9": 26,
      ":": 27,
      ";": 28,
      "<": 29,
      ">": 30,
      "?": 31,
      "A": 32,
      "B": 33,
      "C": 34,
      "D": 35,
      "E": 36,
      "F": 37,
      "G": 38,
      "H": 39,
      "I": 40,
      "J": 41,
      "K": 42,
      "L": 43,
      "M": 44,
      "N": 45,
      "O": 46,
      "P": 47,
      "Q": 48,
      "R": 49,
      "S": 50,
      "T": 51,
      "U": 52,
      "V": 53,
      "W": 54,
      "X": 55,
      "Y": 56,
      "Z": 57,
      "a": 58,
      "b": 59,
      "c": 60,
      "d": 61,
      "e": 62,
      "f": 63,
      "g": 64,
      "h": 65,
      "i": 66,
      "j": 67,
      "k": 68,
      "l": 69,
      "m": 70,
      "n": 71,
      "o": 72,
      "p": 73,
      "q": 74,
      "r": 75,
      "s": 76,
      "t": 77,
      "u": 78,
      "v": 79,
      "w": 80,
      "x": 81,
      "y": 82,
      "z": 83,
      "|": 84,
      "¡": 85,
      "¢": 86,
      "¦": 87,
      "©": 88,
      "«": 89,
      "¬": 90,
      "±": 91,
      "³": 92,
      "»": 93,
      "Â": 94,
      "Ã": 95,
      "Å": 96,
      "Ë": 97,
      "â": 98,
      "Ġ": 99,
      "Ģ": 100,
      "Ĥ": 101,
      "ĥ": 102,
      "Ħ": 103,
      "ĵ": 104,
      "ľ": 105,
      "Ŀ": 106,
      "he": 107,
      "Ġt": 108,
      "Ġa": 109,
      "Ġs": 110,
      "nd": 111,
      "Ġw": 112,
      "Ġthe": 113,
      "ed": 114,
      "Ġand": 115,
      "Ġto": 116,
      "Ġb": 117,
      "in": 118,
      "Ġh": 119,
      "Ġwa": 120,
      "re": 121,
      "Ġf": 122,
      "ou": 123,
      "it": 124,
      "ĠT": 125,
      "Ġl": 126,
      "Ġc": 127,
      "Ġd": 128,
      "Ġhe": 129,
      "er": 130,
      "Ġm": 131,
      "Ġp": 132,
      "Ġwas": 133,
      "om": 134,
      "Ġo": 135,
      "ay": 136,
      "ĠThe": 137,
      "is": 138,
      "ar": 139,
      "il": 140,
      "ing": 141,
      "Ġg": 142,
      "id": 143,
      "ĠS": 144,
      "at": 145,
      "en": 146,
      "Ġn": 147,
      "Ġsa": 148,
      "Ġha": 149,
      "an": 150,
      "im": 151,
      "or": 152,
      "on": 153,
      "Ġit": 154,
      "ĠH": 155,
      "Ġth": 156,
      "ll": 157,
      "Ġ\"": 158,
      "le": 159,
      "Ġher": 160,
      "ĠShe": 161,
      "et": 162,
      "ot": 163,
      "ir": 164,
      "ĠHe": 165,
      "ĠThey": 166,
      "end": 167,
      "es": 168,
      "Ġin": 169,
      "ow": 170,
      "ut": 171,
      "ĠL": 172,
      "ver": 173,
      "ck": 174,
      "ily": 175,
      "Ġu": 176,
      "Ġy": 177,
      "ld": 178,
      "oo": 179,
      "Ġsaid": 180,
      "ig": 181,
      "ex": 182,
      "Ġr": 183,
      "am": 184,
      "ĠI": 185,
      "Ġbe": 186,
      "Ġst": 187,
      "ith": 188,
      "ĠLily": 189,
      "ke": 190,
      "ce": 191,
      "pp": 192,
      "Ġwith": 193,
      "ve": 194,
      "Ġshe": 195,
      "ĠO": 196,
      "ĠOn": 197,
      "Ġon": 198,
      "Ġyou": 199,
      "ri": 200,
      "ked": 201,
      "Ġpl": 202,
      "ĠB": 203,
      "ft": 204,
      "Ġhis": 205,
      "Ġof": 206,
      "nt": 207,
      "Ġso": 208,
      "ad": 209,
      "Ġday": 210,
      "very": 211,
      "Ġthat": 212,
      "Ġplay": 213,
      "Ġup": 214,
      "el": 215,
      "Ġmom": 216,
      "Ġhad": 217,
      "Ġthey": 218,
      "ext": 219,
      "st": 220,
      "Ġwe": 221,
      "Ġfor": 222,
      "Ġe": 223,
      "un": 224,
      "my": 225,
      "ĠM": 226,
      "'s": 227,
      "ould": 228,
      "Ġli": 229,
      "oft": 230,
      "<|": 231,
      "|>": 232,
      "Ġ<|": 233,
      "endoft": 234,
      "endoftext": 235,
      "Ġhapp": 236,
      "ent": 237,
      "ch": 238,
      "itt": 239,
      "Ġwant": 240,
      "her": 241,
      "Ġsh": 242,
      "out": 243,
      "Ġdo": 244,
      "Ġnot": 245,
      "ome": 246,
      "all": 247,
      "se": 248,
      "Ġvery": 249,
      "ound": 250,
      "ly": 251,
      "ime": 252,
      "ittle": 253,
      "Ġk": 254,
      "Ġtime": 255,
      "Ġwh": 256,
      "Ġlittle": 257,
      "Ġthere": 258,
      "Ġis": 259,
      "Ġbig": 260,
      "ht": 261,
      "Ġhappy": 262,
      "ĠA": 263,
      "al": 264,
      "Ġre": 265,
      "ĠIt": 266,
      "Ġsm": 267,
      "riend": 268,
      "Ġfriend": 269,
      "Ġsaw": 270,
      "Ġbut": 271,
      ".\"": 272,
      "ra": 273,
      "ĠTim": 274,
      "Ġan": 275,
      "Ġas": 276,
      "ry": 277,
      "Ġne": 278,
      "ack": 279,
      "ĠOne": 280,
      "ide": 281,
      "ake": 282,
      "ved": 283,
      "'t": 284,
      "!\"": 285,
      "ug": 286,
      "Ġlo": 287,
      "Ġloo": 288,
      "ĠOnce": 289,
      "Ġwere": 290,
      "Ġse": 291,
      "ore": 292,
      "Ġbo": 293,
      "Ġtoo": 294,
      "ĠJ": 295,
      "Ġhim": 296,
      "Ġgo": 297,
      "Ġare": 298,
      "ec": 299,
      "Ġupon": 300,
      "ill": 301,
      "irl": 302,
      "Ġwanted": 303,
      "Ġthem": 304,
      "ard": 305,
      "ĠBen": 306,
      "Ġj": 307,
      "Ġgirl": 308,
      "ĠTom": 309,
      "Ġout": 310,
      "Ġtheir": 311,
      "Ġat": 312,
      "ind": 313,
      "way": 314,
      "ur": 315,
      "fu": 316,
      "Ġdid": 317,
      "hen": 318,
      "Ġsp": 319,
      "Ġsmil": 320,
      "Ġcould": 321,
      "Ġhave": 322,
      "ain": 323,
      "Ġwent": 324,
      "hed": 325,
      "Ġnam": 326,
      "ter": 327,
      "Ġcan": 328,
      "art": 329,
      "rom": 330,
      "lp": 331,
      "ic": 332,
      "ĠW": 333,
      "round": 334,
      "Ġfriends": 335,
      "?\"": 336,
      "Ġex": 337,
      "Ġhelp": 338,
      "ood": 339,
      "ful": 340,
      "Ġkn": 341,
      "ĠBut": 342,
      "Ġall": 343,
      "hing": 344,
      "ĠTimmy": 345,
      "ight": 346,
      "um": 347,
      "ark": 348,
      "Ġfun": 349,
      "one": 350,
      "Ġsay": 351,
      "Ġback": 352,
      "You": 353,
      "Ġnamed": 354,
      "are": 355,
      "Ġcl": 356,
      "Ġno": 357,
      "Ġle": 358,
      "Ġloved": 359,
      "op": 360,
      "elt": 361,
      "oug": 362,
      "Ġsc": 363,
      "Ġfelt": 364,
      "Ġtoy": 365,
      "Ġsmiled": 366,
      "Ġal": 367,
      "Ġasked": 368,
      "ick": 369,
      "side": 370,
      "Ġlike": 371,
      "Ġfe": 372,
      "Ġlooked": 373,
      "Ġsee": 374,
      "Ġman": 375,
      "ame": 376,
      "Ġbir": 377,
      "Ġro": 378,
      "get": 379,
      "Ġme": 380,
      "Ġaround": 381,
      "Ġsome": 382,
      "ure": 383,
      "Ġbr": 384,
      "Ġboy": 385,
      "omet": 386,
      "Ġbird": 387,
      "ong": 388,
      "ice": 389,
      "Ġwould": 390,
      "as": 391,
      "Ġstart": 392,
      "dd": 393,
      "Ġwor": 394,
      "Ġag": 395,
      ",\"": 396,
      "Ġtre": 397,
      "gether": 398,
      "ings": 399,
      "ade": 400,
      "ag": 401,
      "Ġsomet": 402,
      "Ġmake": 403,
      "Ġfa": 404,
      "own": 405,
      "ĠYou": 406,
      "Ġwhat": 407,
      "king": 408,
      "Ġaway": 409,
      "Ġtogether": 410,
      "Ġsays": 411,
      "Ġran": 412,
      "oud": 413,
      "Ã¢": 414,
      "âĤ": 415,
      "âĤ¬": 416,
      "Ġstarted": 417,
      "Ġpark": 418,
      "ĠMom": 419,
      "ared": 420,
      "Ġmade": 421,
      "Ġco": 422,
      "ie": 423,
      "Ġsad": 424,
      "Ġput": 425,
      "Ġot": 426,
      "Ġcar": 427,
      "Ġnew": 428,
      "Ġsomething": 429,
      "ited": 430,
      "ĠF": 431,
      "Ġother": 432,
      "Ġpr": 433,
      "ell": 434,
      "Ġfrom": 435,
      "Ġagain": 436,
      "ble": 437,
      "ook": 438,
      "Ġfl": 439,
      "Ġhug": 440,
      "Ġgood": 441,
      "Ġhome": 442,
      "Ġmu": 443,
      "Ġexc": 444,
      "Ġla": 445,
      "Ġwhen": 446,
      "ried": 447,
      "if": 448,
      "Ġfound": 449,
      "Ġwho": 450,
      "ach": 451,
      "ĠE": 452,
      "ep": 453,
      "ss": 454,
      "est": 455,
      "hat": 456,
      "pped": 457,
      "ought": 458,
      "Ġplaying": 459,
      "ue": 460,
      "Ġthen": 461,
      "Ġsw": 462,
      "Ġch": 463,
      "Ġdec": 464,
      "Ġwal": 465,
      "Ġget": 466,
      "ous": 467,
      "uck": 468,
      "pl": 469,
      "Ġthings": 470,
      "Ġbl": 471,
      "ĠD": 472,
      "ally": 473,
      "Ġgot": 474,
      "ro": 475,
      "nn": 476,
      "Ġliked": 477,
      "ave": 478,
      "Ġdog": 479,
      "Ġexcited": 480,
      "Ġcame": 481,
      "Ġyour": 482,
      "Ġevery": 483,
      "ax": 484,
      "Ġdecid": 485,
      "Ġbec": 486,
      "Ġdown": 487,
      "Ġdecided": 488,
      "Ġv": 489,
      "ĠSam": 490,
      "Ġcare": 491,
      "Ġfind": 492,
      "Ġdad": 493,
      "ouse": 494,
      "ny": 495,
      "ust": 496,
      "ara": 497,
      "ist": 498,
      "Ġone": 499,
      "Ġfeel": 500,
      "Ġscared": 501,
      "ĠAnn": 502,
      "Ġab": 503,
      "Ġthan": 504,
      "Ġta": 505,
      "ĠMax": 506,
      "Ġmy": 507,
      "Ġtree": 508,
      "Ġwill": 509,
      "us": 510,
      "udd": 511,
      "qu": 512,
      "Ġtoys": 513,
      "arn": 514,
      "ways": 515,
      "ers": 516,
      "our": 517,
      "Ġdidn": 518,
      "Ġtook": 519,
      "Ġgra": 520,
      "Ġball": 521,
      "Ġalways": 522,
      "Ġabout": 523,
      "Ġpo": 524,
      "ĠSara": 525,
      "ess": 526,
      "nder": 527,
      "Ġlook": 528,
      "Ġmommy": 529,
      "Ġthought": 530,
      "ĠAnna": 531,
      "ite": 532,
      "ant": 533,
      "fe": 534,
      "Ġlot": 535,
      "Ġkne": 536,
      "Ġke": 537,
      "Ġoutside": 538,
      "ĠSo": 539,
      "ise": 540,
      "Ġmore": 541,
      "ap": 542,
      "ret": 543,
      "ged": 544,
      "Ġlearn": 545,
      "Ġknow": 546,
      "Ġho": 547,
      "ched": 548,
      "ened": 549,
      "Ġint": 550,
      "bb": 551,
      "Ġlaug": 552,
      "ĠWhen": 553,
      "Ġcat": 554,
      "Ġsor": 555,
      "Ġold": 556,
      "Ġtake": 557,
      "eci": 558,
      "ĠHer": 559,
      "ia": 560,
      "fter": 561,
      "ive": 562,
      "Ġany": 563,
      "ma": 564,
      "Ġpe": 565,
      "ĠJo": 566,
      "Ġknew": 567,
      "Ġtr": 568,
      "Ġhow": 569,
      "udden": 570,
      "ecial": 571,
      "Ġspecial": 572,
      "Ġsl": 573,
      "au": 574,
      "Ġshow": 575,
      "Ġsorry": 576,
      "Ġhouse": 577,
      "uddenly": 578,
      "Ġmuch": 579,
      "Ġrun": 580,
      "and": 581,
      "ish": 582,
      "Ġsun": 583,
      "ank": 584,
      "ĠJack": 585,
      "Ġtold": 586,
      "ven": 587,
      "Ġtw": 588,
      "Ġop": 589,
      "Ġhand": 590,
      "Ġor": 591,
      "Ġmo": 592,
      "Ġsk": 593,
      "Ġinto": 594,
      "Ġplayed": 595,
      "ink": 596,
      "Ġwater": 597,
      "Ġgave": 598,
      "ty": 599,
      "Ġtried": 600,
      "Ġclo": 601,
      "Ġeat": 602,
      "ĠEvery": 603,
      "Ġproud": 604,
      "other": 605,
      "Ġinside": 606,
      "ate": 607,
      "ĠWe": 608,
      "Ġif": 609,
      "Ġen": 610,
      "Ġroom": 611,
      "ause": 612,
      "ump": 613,
      "Ġover": 614,
      "Ġcouldn": 615,
      "dy": 616,
      "ĠMia": 617,
      "Ġnever": 618,
      "ob": 619,
      "ge": 620,
      "etter": 621,
      "Ġpick": 622,
      "Ġgre": 623,
      "ĠFrom": 624,
      "here": 625,
      "Ġheard": 626,
      "ak": 627,
      "ion": 628,
      "Ġhugged": 629,
      "Ġstr": 630,
      "ĠSuddenly": 631,
      "Ġpret": 632,
      "Ġbox": 633,
      "Ġexpl": 634,
      "Ġneed": 635,
      "Ġeach": 636,
      "Ġwat": 637,
      "ace": 638,
      "Ġthis": 639,
      "Ġbecause": 640,
      "Ġbu": 641,
      "Ġjust": 642,
      "Ġmany": 643,
      "ĠHis": 644,
      "oth": 645,
      "ile": 646,
      "Ġfo": 647,
      "Ġsmall": 648,
      "Ġnice": 649,
      "ĠAnd": 650,
      "ĠThen": 651,
      "Ġlong": 652,
      "Ġcom": 653,
      "Ġqu": 654,
      "'m": 655,
      "sed": 656,
      "urt": 657,
      "iz": 658,
      "gry": 659,
      "imal": 660,
      "Ġanimal": 661,
      "uc": 662,
      "ĠC": 663,
      "ving": 664,
      "by": 665,
      "Ġoff": 666,
      "ine": 667,
      "Ġlearned": 668,
      "Ġtry": 669,
      "Ġbear": 670,
      "Ġlove": 671,
      "Ġsn": 672,
      "ough": 673,
      "Ġbetter": 674,
      "ild": 675,
      "ort": 676,
      "sel": 677,
      "Ġflow": 678,
      "Ġunt": 679,
      "Yes": 680,
      "Ġcall": 681,
      "Ġuntil": 682,
      "em": 683,
      "Ġkind": 684,
      "ars": 685,
      "Ġcle": 686,
      "Ġbest": 687,
      "Ġdon": 688,
      "urn": 689,
      "Ġend": 690,
      "ull": 691,
      "Ġdre": 692,
      "Ġfi": 693,
      "Ġim": 694,
      "ady": 695,
      "Ġcareful": 696,
      "aut": 697,
      "ves": 698,
      "Ġgr": 699,
      "lly": 700,
      "Ġad": 701,
      "Th": 702,
      "Ġthanked": 703,
      "ber": 704,
      "Ġlaughed": 705,
      "Ġsky": 706,
      "Ġbeaut": 707,
      "Ġeven": 708,
      "vent": 709,
      "Ġfast": 710,
      "Ġche": 711,
      "Ġjump": 712,
      "Ġbra": 713,
      "urp": 714,
      "lew": 715,
      "Ġby": 716,
      "oy": 717,
      "iny": 718,
      "Ġte": 719,
      "Ġhurt": 720,
      "Ġlist": 721,
      "pt": 722,
      "Ġgard": 723,
      "Ġgarden": 724,
      "ase": 725,
      "self": 726,
      "ĠÃ¢": 727,
      "Ġloud": 728,
      "Ġstill": 729,
      "Ġgl": 730,
      "Ġbeauti": 731,
      "Ġlots": 732,
      "Ġbeautiful": 733,
      "ct": 734,
      "Ġanimals": 735,
      "Ġcome": 736,
      "ies": 737,
      "Ġlived": 738,
      "Ġunder": 739,
      "Ġhard": 740,
      "Ġway": 741,
      "hes": 742,
      "rm": 743,
      "ĠP": 744,
      "Ġlet": 745,
      "Ġwo": 746,
      "Ġfam": 747,
      "ĠAs": 748,
      "wn": 749,
      "ool": 750,
      "Åĵ": 751,
      "Ġcol": 752,
      "ock": 753,
      "be": 754,
      "ect": 755,
      "Ġcu": 756,
      "igh": 757,
      "Ġboth": 758,
      "ĠJoh": 759,
      "ning": 760,
      "kay": 761,
      "ĠAfter": 762,
      "Ġdan": 763,
      "Ġra": 764,
      "Ġsafe": 765,
      "ast": 766,
      "Ġits": 767,
      "Ġrem": 768,
      "Ġstay": 769,
      "Ġbrave": 770,
      "Ġflew": 771,
      "Ġbook": 772,
      "Ġfly": 773,
      "ane": 774,
      "Ġbad": 775,
      "Ġdoll": 776,
      "Ġshould": 777,
      "ucy": 778,
      "Ġred": 779,
      "ree": 780,
      "Ġimp": 781,
      "Ġangry": 782,
      "ople": 783,
      "Ġstor": 784,
      "ĠLucy": 785,
      "Ġcalled": 786,
      "Ġtwo": 787,
      "It": 788,
      "ished": 789,
      "Ġdra": 790,
      "Let": 791,
      "Ġpic": 792,
      "Ġclean": 793,
      "Ġfin": 794,
      "Ġwalked": 795,
      "age": 796,
      "dded": 797,
      "Ġshare": 798,
      "Ġfamily": 799,
      "urpr": 800,
      "Ġpeople": 801,
      "ip": 802,
      "ĠG": 803,
      "Ġsurpr": 804,
      "No": 805,
      "Ġrock": 806,
      "led": 807,
      "illy": 808,
      "Ġsoon": 809,
      "Ġpretty": 810,
      "Ġshiny": 811,
      "ĠBob": 812,
      "fore": 813,
      "ummy": 814,
      "Ġground": 815,
      "Ġkept": 816,
      "Ġfore": 817,
      "Ġgoing": 818,
      "Ġwind": 819,
      "ĠJohn": 820,
      "Ġcon": 821,
      "Ġnow": 822,
      "Ġsto": 823,
      "ary": 824,
      "ised": 825,
      "ture": 826,
      "Ġnoise": 827,
      "eet": 828,
      "Ġdoor": 829,
      "Ġkeep": 830,
      "ied": 831,
      "Ġnodded": 832,
      "Ġfar": 833,
      "Ġopened": 834,
      "Ġexplore": 835,
      "What": 836,
      "Ġey": 837,
      "Ġadvent": 838,
      "Ġtruck": 839,
      "Ġcry": 840,
      "Ġturn": 841,
      "Ġcolor": 842,
      "Ġide": 843,
      "âĤ¬â": 844,
      "Ġbefore": 845,
      "ĠSue": 846,
      "Ġwhile": 847,
      "ff": 848,
      "imb": 849,
      "ĠR": 850,
      "aybe": 851,
      "so": 852,
      "Ġclimb": 853,
      "Ġreal": 854,
      "ĠMommy": 855,
      "Ġcre": 856,
      "thing": 857,
      "Ġfr": 858,
      "Ġalso": 859,
      "Ġbed": 860,
      "Ġpicked": 861,
      "les": 862,
      "Ġidea": 863,
      "Thank": 864,
      "hy": 865,
      "Ġpicture": 866,
      "Ġthr": 867,
      "Ġfeeling": 868,
      "Ġnext": 869,
      "ger": 870,
      "Ġwr": 871,
      "kes": 872,
      "Ġhas": 873,
      "Ġun": 874,
      "uch": 875,
      "Ġtow": 876,
      "ĠN": 877,
      "ĠSp": 878,
      "That": 879,
      "Ġtra": 880,
      "Ħ¢": 881,
      "âĤ¬âĦ¢": 882,
      "ious": 883,
      "ĠDad": 884,
      "joy": 885,
      "Ġwalking": 886,
      "Ġlisten": 887,
      "Ġwait": 888,
      "iced": 889,
      "Ġsmile": 890,
      "ting": 891,
      "Ġma": 892,
      "ember": 893,
      "Ġbeing": 894,
      "Ġjo": 895,
      "Ġadventure": 896,
      "Ġclos": 897,
      "Ġstopped": 898,
      "oon": 899,
      "Ġslide": 900,
      "Ġeyes": 901,
      "Ġwalk": 902,
      "Ġafter": 903,
      "Ġhands": 904,
      "Ġgi": 905,
      "ught": 906,
      "Ġblue": 907,
      "ac": 908,
      "Ġfood": 909,
      "Ġgreat": 910,
      "Ġrepl": 911,
      "Ġwatch": 912,
      "Ġdif": 913,
      "Ġflowers": 914,
      "Ġfish": 915,
      "Ġdel": 916,
      "Ġenjoy": 917,
      "Ġstrong": 918,
      "Ġremember": 919,
      "Ġthink": 920,
      "Ġlooking": 921,
      "Ġdis": 922,
      "Ġask": 923,
      "Ġbre": 924,
      "Ġgive": 925,
      "able": 926,
      "Ġus": 927,
      "llow": 928,
      "Ġvo": 929,
      "maz": 930,
      "Ġbro": 931,
      "Ġapp": 932,
      "Ġamaz": 933,
      "Ġnoticed": 934,
      "Ġokay": 935,
      "Ġever": 936,
      "Ġsound": 937,
      "Ġrain": 938,
      "irst": 939,
      "Ġtal": 940,
      "Ġwonder": 941,
      "Ġstick": 942,
      "Ġshout": 943,
      "Ġboat": 944,
      "ted": 945,
      "ized": 946,
      "Ġreplied": 947,
      "Ġforest": 948,
      "Ġshowed": 949,
      "Ġnear": 950,
      "co": 951,
      "Ġquick": 952,
      "Ġmean": 953,
      "ĠSpot": 954,
      "Ġown": 955,
      "Ġright": 956,
      "Ġuse": 957,
      "Ġac": 958,
      "Ġwork": 959,
      "Ġfollow": 960,
      "lease": 961,
      "Ġhigh": 962,
      "Ġhead": 963,
      "We": 964,
      "gan": 965,
      "Ġbecame": 966,
      "Look": 967,
      "bbit": 968,
      "bye": 969,
      "Ġimport": 970,
      "Ġblock": 971,
      "Ġyell": 972,
      "Ġeveryone": 973,
      "Ġour": 974,
      "Ġplace": 975,
      "Ġmor": 976,
      "Ġam": 977,
      "ndma": 978,
      "Ġimportant": 979,
      "ath": 980,
      "day": 981,
      "ĠJane": 982,
      "Ġcuri": 983,
      "fere": 984,
      "ange": 985,
      "Ġde": 986,
      "ila": 987,
      "Ġdiffere": 988,
      "Ġwhere": 989,
      "Ġrabbit": 990,
      "bbed": 991,
      "Ġdoes": 992,
      "Ġwatched": 993,
      "Ġhop": 994,
      "ĠTh": 995,
      "Ġbright": 996,
      "aught": 997,
      "Ġmag": 998,
      "Ġface": 999,
      "Ġcloser": 1000,
      "Ġar": 1001,
      "Ġcurious": 1002,
      "Ġpain": 1003,
      "ered": 1004,
      "more": 1005,
      "Ġanymore": 1006,
      "Ġbeen": 1007,
      "Ġye": 1008,
      "Ġquickly": 1009,
      "ng": 1010,
      "ĠLila": 1011,
      "Ġopen": 1012,
      "leep": 1013,
      "Ġvoice": 1014,
      "Ġcake": 1015,
      "Ġgoodbye": 1016,
      "Ġstore": 1017,
      "Ġcook": 1018,
      "Ġdress": 1019,
      "itc": 1020,
      "Ġdifferent": 1021,
      "Ġwarm": 1022,
      "Ġforg": 1023,
      "Ġtell": 1024,
      "Ġbel": 1025,
      "Can": 1026,
      "Ġfire": 1027,
      "Ġsure": 1028,
      "ey": 1029,
      "Ġcou": 1030,
      "ired": 1031,
      "Ġsees": 1032,
      "Ġstory": 1033,
      "ached": 1034,
      "uff": 1035,
      "Ġsweet": 1036,
      "Ġchild": 1037,
      "Ġfirst": 1038,
      "Ġfav": 1039,
      "Ġhelped": 1040,
      "Ġfell": 1041,
      "Ġpull": 1042,
      "Ġbutter": 1043,
      "imes": 1044,
      "Ġdraw": 1045,
      "Ġnight": 1046,
      "Ġz": 1047,
      "Ġper": 1048,
      "Ġpu": 1049,
      "Ġbus": 1050,
      "isy": 1051,
      "Ġcont": 1052,
      "Ġbit": 1053,
      "Ġhere": 1054,
      "Ġthree": 1055,
      "ĠSarah": 1056,
      "Ġlea": 1057,
      "Ġbrother": 1058,
      "Ġru": 1059,
      "Ġkitc": 1060,
      "Ġjumped": 1061,
      "Ġkitchen": 1062,
      "ĠDo": 1063,
      "ins": 1064,
      "Ġbeh": 1065,
      "Ġkid": 1066,
      "Ġsing": 1067,
      "Ġonly": 1068,
      "Ġhappened": 1069,
      "ner": 1070,
      "Ġstop": 1071,
      "ĠIn": 1072,
      "Ġflo": 1073,
      "Ġgame": 1074,
      "Ġbirds": 1075,
      "ppy": 1076,
      "iss": 1077,
      "Ġsoft": 1078,
      "Ġprin": 1079,
      "akes": 1080,
      "zy": 1081,
      "Mom": 1082,
      "Ġglad": 1083,
      "Ġcra": 1084,
      "'re": 1085,
      "Ġmess": 1086,
      "ĠLet": 1087,
      "Ġmon": 1088,
      "Ġdr": 1089,
      "unny": 1090,
      "ĠEveryone": 1091,
      "Ġsand": 1092,
      "Ġcr": 1093,
      "Ġworld": 1094,
      "Ġgrass": 1095,
      "Ġblocks": 1096,
      "Ġreached": 1097,
      "Ġhat": 1098,
      "Ġlady": 1099,
      "Ġgrabbed": 1100,
      "Ġcut": 1101,
      "Wow": 1102,
      "nts": 1103,
      "ĠThat": 1104,
      "Ġhaving": 1105,
      "ater": 1106,
      "Ġate": 1107,
      "Ġshouted": 1108,
      "Ġrest": 1109,
      "Ġyummy": 1110,
      "olly": 1111,
      "Ġthrough": 1112,
      "Ġfro": 1113,
      "Ġready": 1114,
      "Ġname": 1115,
      "Ġrealized": 1116,
      "Ġfavor": 1117,
      "Ġdone": 1118,
      "Ġcried": 1119,
      "Ġflower": 1120,
      "Ġfavorite": 1121,
      "ĠCan": 1122,
      "ass": 1123,
      "Ġsqu": 1124,
      "Ġthing": 1125,
      "Ġworry": 1126,
      "Ġtired": 1127,
      "Ġpare": 1128,
      "Ġpap": 1129,
      "Ġreally": 1130,
      "Ġmagic": 1131,
      "Ġtri": 1132,
      "Ġpond": 1133,
      "Ġless": 1134,
      "where": 1135,
      "Ġunderst": 1136,
      "air": 1137,
      "Ġgreen": 1138,
      "ient": 1139,
      "Ġwaved": 1140,
      "Ġmum": 1141,
      "Ġbegan": 1142,
      "Ġfunny": 1143,
      "Ġtast": 1144,
      "Ġpus": 1145,
      "ather": 1146,
      "eddy": 1147,
      "Ġlooks": 1148,
      "ĠBenny": 1149,
      "ards": 1150,
      "Ġbutterf": 1151,
      "ken": 1152,
      "ĠJoe": 1153,
      "aisy": 1154,
      "mer": 1155,
      "Ġcatch": 1156,
      "Ġseen": 1157,
      "Ġkids": 1158,
      "Ġanother": 1159,
      "Ġpretend": 1160,
      "Ġfix": 1161,
      "th": 1162,
      "Ġdin": 1163,
      "Ġfill": 1164,
      "fully": 1165,
      "sh": 1166,
      "Ġhimself": 1167,
      "Ġtouch": 1168,
      "Ġcoming": 1169,
      "Ġmaking": 1170,
      "Ġswing": 1171,
      "Ġhole": 1172,
      "Ġread": 1173,
      "Ġbag": 1174,
      "ĠSally": 1175,
      "Don": 1176,
      "Ġpart": 1177,
      "ign": 1178,
      "Ġcool": 1179,
      "Ġhair": 1180,
      "ĠFin": 1181,
      "ster": 1182,
      "ĠK": 1183,
      "Ġused": 1184,
      "Ġbunny": 1185,
      "Ġswim": 1186,
      "Ġbehind": 1187,
      "bo": 1188,
      "Ġyellow": 1189,
      "Ġfrog": 1190,
      "Ġsmell": 1191,
      "Ġprom": 1192,
      "Ġparents": 1193,
      "Ġcold": 1194,
      "Ġba": 1195,
      "Ġdark": 1196,
      "ely": 1197,
      "ued": 1198,
      "Ġdro": 1199,
      "ation": 1200,
      "Ġdelic": 1201,
      "Ġsurprise": 1202,
      "Ġlight": 1203,
      "Ġrunning": 1204,
      "Ġset": 1205,
      "Ġtrees": 1206,
      "ike": 1207,
      "Ġwished": 1208,
      "Ġste": 1209,
      "Ġhopped": 1210,
      "Ġsleep": 1211,
      "Ġwood": 1212,
      "Ġfull": 1213,
      "Ġhappily": 1214,
      "oney": 1215,
      "Ġwhy": 1216,
      "Ġlikes": 1217,
      "Ġhold": 1218,
      "Ġworked": 1219,
      "Ġcars": 1220,
      "Ġlion": 1221,
      "Ġremembered": 1222,
      "Ġlost": 1223,
      "Ġlaugh": 1224,
      "Ġpaper": 1225,
      "Ġsho": 1226,
      "ĠDaisy": 1227,
      "Ġslow": 1228,
      "Ġdri": 1229,
      "Ġmouse": 1230,
      "Ġbuy": 1231,
      "Ġperf": 1232,
      "Ġfloor": 1233,
      "Hell": 1234,
      "ul": 1235,
      "Hello": 1236,
      "Ġdream": 1237,
      "ens": 1238,
      "Ġduck": 1239,
      "ĠEm": 1240,
      "Ġbutterfly": 1241,
      "Ġbow": 1242,
      "Ġtop": 1243,
      "Ġbuild": 1244,
      "Ġsnow": 1245,
      "Ġtall": 1246,
      "Ġsat": 1247,
      "Ġneeded": 1248,
      "Ġenjoyed": 1249,
      "ĠBilly": 1250,
      "Ġlesson": 1251,
      "Ġmove": 1252,
      "Ġpre": 1253,
      "ĠTommy": 1254,
      "Ġyears": 1255,
      "ĠAt": 1256,
      "Ġleft": 1257,
      "Ġhill": 1258,
      "Ġhear": 1259,
      "Ġwear": 1260,
      "Ġthank": 1261,
      "Ġhid": 1262,
      "Ġcarefully": 1263,
      "Ġwindow": 1264,
      "Ġdoing": 1265,
      "\".": 1266,
      "rel": 1267,
      "Ġanything": 1268,
      "Ġbug": 1269,
      "andy": 1270,
      "Ġair": 1271,
      "uffy": 1272,
      "Ġheld": 1273,
      "ĠMolly": 1274,
      "iver": 1275,
      "ĠThere": 1276,
      "Ġfollowed": 1277,
      "cess": 1278,
      "Ġhun": 1279,
      "Ġspot": 1280,
      "Ġcontin": 1281,
      "Ġfair": 1282,
      "Ġherself": 1283,
      "ĠNow": 1284,
      "Ġfinished": 1285,
      "Ġwrong": 1286,
      "orn": 1287,
      "ren": 1288,
      "asure": 1289,
      "Ġtable": 1290,
      "Ġfriendly": 1291,
      "Ġice": 1292,
      "Ġplease": 1293,
      "Ġcast": 1294,
      "reed": 1295,
      "Ġbooks": 1296,
      "Ġsurprised": 1297,
      "Ġ-": 1298,
      "ĠGra": 1299,
      "Ġarri": 1300,
      "ĠJen": 1301,
      "ds": 1302,
      "ined": 1303,
      "ream": 1304,
      "ĠFinally": 1305,
      "gon": 1306,
      "Ġdir": 1307,
      "Ġgent": 1308,
      "ash": 1309,
      "ield": 1310,
      "ĠJim": 1311,
      "sp": 1312,
      "Ġsong": 1313,
      "av": 1314,
      "Ġunderstand": 1315,
      "uit": 1316,
      "Ġgrandma": 1317,
      "Ġdelicious": 1318,
      "Ġwonderful": 1319,
      "Ġwants": 1320,
      "Ġcontinued": 1321,
      "ross": 1322,
      "Ġtight": 1323,
      "Ġmight": 1324,
      "Ġarm": 1325,
      "Ġhot": 1326,
      "Ġcolors": 1327,
      "Ġmus": 1328,
      "ĠThis": 1329,
      "Ġchildren": 1330,
      "Ġarrived": 1331,
      "Ġdinner": 1332,
      "Ġmakes": 1333,
      "Ġtail": 1334,
      "Ġclose": 1335,
      "Ġgone": 1336,
      "Ġel": 1337,
      "Ġleaves": 1338,
      "Ġmat": 1339,
      "Ġrel": 1340,
      "Ġwall": 1341,
      "Ġcreat": 1342,
      "Ġforgot": 1343,
      "Ġfilled": 1344,
      "room": 1345,
      "Ġyes": 1346,
      "Ġscary": 1347,
      "Ġbroken": 1348,
      "Ġsomeone": 1349,
      "Ġpoin": 1350,
      "Ġmoment": 1351,
      "ĠFl": 1352,
      "Ġdanc": 1353,
      "icy": 1354,
      "Ġballoon": 1355,
      "Ġcount": 1356,
      "'ll": 1357,
      "Ġpat": 1358,
      "ĠAmy": 1359,
      "Ġvis": 1360,
      "Ġpictures": 1361,
      "ctor": 1362,
      "Ġmet": 1363,
      "man": 1364,
      "Ġable": 1365,
      "Ġwet": 1366,
      "Ġagreed": 1367,
      "Ġothers": 1368,
      "ask": 1369,
      "Ġfall": 1370,
      "Ġelse": 1371,
      "Ġcookies": 1372,
      "ĠJill": 1373,
      "Ġcastle": 1374,
      "Ġmother": 1375,
      "ĠMaybe": 1376,
      "ons": 1377,
      "Ġsmiles": 1378,
      "Ġbreak": 1379,
      "lf": 1380,
      "Ġwhite": 1381,
      "Ġgetting": 1382,
      "Ġhungry": 1383,
      "Ġpink": 1384,
      "oup": 1385,
      "Ġenough": 1386,
      "Ġmorning": 1387,
      "ĠTo": 1388,
      "Ġdaddy": 1389,
      "ĠWhat": 1390,
      "Ġclot": 1391,
      "ich": 1392,
      "row": 1393,
      "Ġturned": 1394,
      "Ġtalk": 1395,
      "Ġtrying": 1396,
      "Ġamazing": 1397,
      "Ġmusic": 1398,
      "Ġsail": 1399,
      "Ġclothes": 1400,
      "Ġmar": 1401,
      "Ġclimbed": 1402,
      "red": 1403,
      "Ġfew": 1404,
      "Ġroll": 1405,
      "Ġsquir": 1406,
      "Ġbrought": 1407,
      "rot": 1408,
      "amp": 1409,
      "Ġlistened": 1410,
      "wl": 1411,
      "Ġspl": 1412,
      "Ġperfect": 1413,
      "Ġfinally": 1414,
      "que": 1415,
      "oring": 1416,
      "Ġsometimes": 1417,
      "key": 1418,
      "Ġpuppy": 1419,
      "app": 1420,
      "Ġsilly": 1421,
      "Ġpet": 1422,
      "Ġsquirrel": 1423,
      "Ġbeach": 1424,
      "Maybe": 1425,
      "ries": 1426,
      "This": 1427,
      "Ġpi": 1428,
      "Ġju": 1429,
      "Ġasks": 1430,
      "oom": 1431,
      "Ġfight": 1432,
      "ance": 1433,
      "Ġwaited": 1434,
      "Ġeverything": 1435,
      "apped": 1436,
      "Ġteddy": 1437,
      "Ġride": 1438,
      "ucky": 1439,
      "Ġpol": 1440,
      "ister": 1441,
      "Ġalone": 1442,
      "gg": 1443,
      "Ġhide": 1444,
      "Ġcomp": 1445,
      "zz": 1446,
      "Ġstayed": 1447,
      "Oh": 1448,
      "Ġgrow": 1449,
      "ower": 1450,
      "Ġwasn": 1451,
      "der": 1452,
      "Ġdeep": 1453,
      "Ġwoods": 1454,
      "ated": 1455,
      "ama": 1456,
      "elc": 1457,
      "Ġdanger": 1458,
      "Ġstrange": 1459,
      "ix": 1460,
      "Ġamazed": 1461,
      "Ġflying": 1462,
      "Ġfox": 1463,
      "os": 1464,
      "ope": 1465,
      "ott": 1466,
      "Ġsit": 1467,
      "Ġlake": 1468,
      "Ġtowards": 1469,
      "Ġvisit": 1470,
      "anc": 1471,
      "Ġsear": 1472,
      "ere": 1473,
      "rew": 1474,
      "Ġbaby": 1475,
      "Ġpulled": 1476,
      "ence": 1477,
      "Ġspark": 1478,
      "Ġcloud": 1479,
      "eter": 1480,
      "Ġtrain": 1481,
      "Ġpa": 1482,
      "ze": 1483,
      "Ġpen": 1484,
      "Ġcream": 1485,
      "But": 1486,
      "Ġjoy": 1487,
      "ph": 1488,
      "Ġmoral": 1489,
      "igg": 1490,
      "avy": 1491,
      "ever": 1492,
      "me": 1493,
      "Ġbike": 1494,
      "up": 1495,
      "thy": 1496,
      "ises": 1497,
      "ssed": 1498,
      "Ġdoctor": 1499,
      "ĠAll": 1500,
      "Ġjob": 1501,
      "ugg": 1502,
      "Ġthinks": 1503,
      "Ġsister": 1504,
      "Ġdance": 1505,
      "Ġdragon": 1506,
      "ames": 1507,
      "Ġbigger": 1508,
      "ĠSoon": 1509,
      "outh": 1510,
      "Ġcup": 1511,
      "med": 1512,
      "ang": 1513,
      "Ġtreasure": 1514,
      "Ġliving": 1515,
      "Ġshar": 1516,
      "Ġparty": 1517,
      "unch": 1518,
      "Ġpaint": 1519,
      "Ġpromised": 1520,
      "Ġmouth": 1521,
      "Ġleave": 1522,
      "ĠFluffy": 1523,
      "Ġwon": 1524,
      "cket": 1525,
      "Ġworried": 1526,
      "Ġruns": 1527,
      "Ġgrate": 1528,
      "Ġfield": 1529,
      "Ġland": 1530,
      "Ġbott": 1531,
      "Ġshared": 1532,
      "Okay": 1533,
      "Ġcandy": 1534,
      "Ġside": 1535,
      "Ġgu": 1536,
      "Ġdolls": 1537,
      "Ġgrateful": 1538,
      "Ġblank": 1539,
      "Ġprincess": 1540,
      "Ġwelc": 1541,
      "ained": 1542,
      "Ġblanket": 1543,
      "Ġem": 1544,
      "Ġmoney": 1545,
      "Ġhelping": 1546,
      "Ġfarmer": 1547,
      "Ġgift": 1548,
      "Ġve": 1549,
      "Ġslowly": 1550,
      "Ġblack": 1551,
      "Ġtower": 1552,
      "orm": 1553,
      "Ġeverywhere": 1554,
      "Ġjoin": 1555,
      "Ġpot": 1556,
      "The": 1557,
      "Ġdangerous": 1558,
      "ire": 1559,
      "Ġfur": 1560,
      "Ġtreat": 1561,
      "Ġcarrot": 1562,
      "Ġbelie": 1563,
      "OK": 1564,
      "eces": 1565,
      "Ġheavy": 1566,
      "Ġowner": 1567,
      "leph": 1568,
      "Ġfaster": 1569,
      "Ġcrying": 1570,
      "ipp": 1571,
      "Ġmix": 1572,
      "Ġpieces": 1573,
      "cle": 1574,
      "ol": 1575,
      "Ġbowl": 1576,
      "Ġtwins": 1577,
      "Ġatt": 1578,
      "Ġreach": 1579,
      "Ġmagical": 1580,
      "iet": 1581,
      "Ġmost": 1582,
      "ually": 1583,
      "Hi": 1584,
      "Ġsign": 1585,
      "set": 1586,
      "Why": 1587,
      "bble": 1588,
      "ipped": 1589,
      "sw": 1590,
      "Ġsec": 1591,
      "fort": 1592,
      "Ġcolorful": 1593,
      "Ġcho": 1594,
      "Ġstepped": 1595,
      "ling": 1596,
      "Mommy": 1597,
      "Ġansw": 1598,
      "Ġmonkey": 1599,
      "Ġdirty": 1600,
      "Ġsmart": 1601,
      "ee": 1602,
      "ĠEmma": 1603,
      "ĠMama": 1604,
      "Ġclosed": 1605,
      "ming": 1606,
      "less": 1607,
      "Ġquiet": 1608,
      "Ġplan": 1609,
      "Ġscream": 1610,
      "ased": 1611,
      "Ġpro": 1612,
      "Ġsuch": 1613,
      "ĠTw": 1614,
      "Ġacc": 1615,
      "Ġhig": 1616,
      "ident": 1617,
      "ĠJust": 1618,
      "umb": 1619,
      "ĠJimmy": 1620,
      "ear": 1621,
      "Ġwords": 1622,
      "Ġsnack": 1623,
      "Ġbroke": 1624,
      "Sure": 1625,
      "Ġpie": 1626,
      "Ġshap": 1627,
      "Ġacross": 1628,
      "Ġbuck": 1629,
      "Ġbath": 1630,
      "Ġdisapp": 1631,
      "Ġhoped": 1632,
      "ĠGrandma": 1633,
      "chool": 1634,
      "Ġbar": 1635,
      "cked": 1636,
      "Ġplant": 1637,
      "ĠMr": 1638,
      "Ġcray": 1639,
      "Ġheal": 1640,
      "de": 1641,
      "Ġstuck": 1642,
      "Ġheart": 1643,
      "Ġneigh": 1644,
      "Ġeating": 1645,
      "Ġthrew": 1646,
      "ored": 1647,
      "Ġschool": 1648,
      "Ġyard": 1649,
      "Ġmonster": 1650,
      "Ġlon": 1651,
      "Ġteac": 1652,
      "Ġnap": 1653,
      "Ġmust": 1654,
      "Ġwin": 1655,
      "Ġsecret": 1656,
      "Ġneighb": 1657,
      "Ġsame": 1658,
      "Ġfeels": 1659,
      "ek": 1660,
      "Ġbrown": 1661,
      "Ġcour": 1662,
      "Ġriver": 1663,
      "Ġlonely": 1664,
      "Ġrace": 1665,
      "ract": 1666,
      "Ġje": 1667,
      "br": 1668,
      "Ġwithout": 1669,
      "iting": 1670,
      "Ġhigher": 1671,
      "ĠMary": 1672,
      "Ġthrow": 1673,
      "ĠDaddy": 1674,
      "Ġspr": 1675,
      "Ġpushed": 1676,
      "Ġbee": 1677,
      "Ġshoes": 1678,
      "Ġtown": 1679,
      "ĠTweet": 1680,
      "Ġcourse": 1681,
      "Ġbite": 1682,
      "Ġbutt": 1683,
      "Ġnoises": 1684,
      "Ġcoll": 1685,
      "Ġwelcome": 1686,
      "ĠTheir": 1687,
      "eared": 1688,
      "Ġclapped": 1689,
      "Ġswings": 1690,
      "Ġgentle": 1691,
      "ĠWh": 1692,
      "Ġtoday": 1693,
      "ney": 1694,
      "Ġfruit": 1695,
      "Ġbelieve": 1696,
      "Ġhit": 1697,
      "Ġowl": 1698,
      "orrow": 1699,
      "Ġstand": 1700,
      "Ġteacher": 1701,
      "bow": 1702,
      "Ġsea": 1703,
      "Ġaccident": 1704,
      "Ġgames": 1705,
      "Ġfree": 1706,
      "Ġlunch": 1707,
      "Ġwell": 1708,
      "Ġcheered": 1709,
      "Ġwings": 1710,
      "Ġca": 1711,
      "Ġsang": 1712,
      "ier": 1713,
      "Ġband": 1714,
      "Ġbring": 1715,
      "Ġdry": 1716,
      "Ġsmo": 1717,
      "Ġrocks": 1718,
      "ĠInside": 1719,
      "Ġdrove": 1720,
      "oun": 1721,
      "Ġfairy": 1722,
      "Lily": 1723,
      "Ġsoup": 1724,
      "Ġleg": 1725,
      "Ġlonger": 1726,
      "ventually": 1727,
      "Ġdropped": 1728,
      "asket": 1729,
      "Ġpack": 1730,
      "Ġshop": 1731,
      "Ġpocket": 1732,
      "Ġapple": 1733,
      "lephant": 1734,
      "Ġjour": 1735,
      "Ġhugs": 1736,
      "Ġrainbow": 1737,
      "Ġpers": 1738,
      "Ġupset": 1739,
      "Ġexplained": 1740,
      "Ġben": 1741,
      "ĠMum": 1742,
      "Ġneck": 1743,
      "Ġorange": 1744,
      "ead": 1745,
      "Ġmin": 1746,
      "Ġcaught": 1747,
      "Ġinst": 1748,
      "ord": 1749,
      "vel": 1750,
      "Ġbasket": 1751,
      "ible": 1752,
      "Ġpig": 1753,
      "ĠLater": 1754,
      "Ġhappen": 1755,
      "Ġspoon": 1756,
      "Ġswam": 1757,
      "Ġforget": 1758,
      "Ġelephant": 1759,
      "Ġresp": 1760,
      "ment": 1761,
      "Ġsu": 1762,
      "itting": 1763,
      "Ġadventures": 1764,
      "issed": 1765,
      "idge": 1766,
      "Ġnaught": 1767,
      "Ġmoved": 1768,
      "bby": 1769,
      "Ġstre": 1770,
      "Ġkite": 1771,
      "Ġwouldn": 1772,
      "Ġbucket": 1773,
      "Ġturns": 1774,
      "cks": 1775,
      "fused": 1776,
      "Ġnose": 1777,
      "Ġalong": 1778,
      "Ġplac": 1779,
      "Ġchair": 1780,
      "Ġnaughty": 1781,
      "ush": 1782,
      "Ġwhe": 1783,
      "itty": 1784,
      "Ġexploring": 1785,
      "hone": 1786,
      "Ġseemed": 1787,
      "Ġmine": 1788,
      "ount": 1789,
      "ĠThank": 1790,
      "Ġtom": 1791,
      "Ġfence": 1792,
      "Ġdes": 1793,
      "Ġpast": 1794,
      "anch": 1795,
      "ors": 1796,
      "Ġbranch": 1797,
      "Ġbelong": 1798,
      "Ġsuddenly": 1799,
      "ocked": 1800,
      "Ġwish": 1801,
      "Ġjuice": 1802,
      "yard": 1803,
      "Ġcave": 1804,
      "Ġstars": 1805,
      "Ġbat": 1806,
      "ung": 1807,
      "Ġbackyard": 1808,
      "Do": 1809,
      "Ġsick": 1810,
      "Ġlate": 1811,
      "Ġsinging": 1812,
      "Ġmiss": 1813,
      "Ġexp": 1814,
      "Ġpres": 1815,
      "ĠCome": 1816,
      "Ġyoung": 1817,
      "Ġob": 1818,
      "Ġshook": 1819,
      "ittens": 1820,
      "sy": 1821,
      "Ġdist": 1822,
      "Ġwoke": 1823,
      "Ġes": 1824,
      "Ġwise": 1825,
      "Ġtaking": 1826,
      "Ġtrou": 1827,
      "ts": 1828,
      "Ġtakes": 1829,
      "llo": 1830,
      "Ġcomes": 1831,
      "Ġnearby": 1832,
      "ĠAl": 1833,
      "Ġcarry": 1834,
      "Ġsounds": 1835,
      "Ġwondered": 1836,
      "Ġaf": 1837,
      "col": 1838,
      "ĠJenny": 1839,
      "ail": 1840,
      "ose": 1841,
      "Ġthough": 1842,
      "Ġbusy": 1843,
      "Ġarms": 1844,
      "Ġwar": 1845,
      "Ġlaughing": 1846,
      "Ġmail": 1847,
      "ped": 1848,
      "Ġ3": 1849,
      "Ġdrink": 1850,
      "Ġnest": 1851,
      "Ġmark": 1852,
      "Ġstu": 1853,
      "Ġtiny": 1854,
      "Ġpurp": 1855,
      "vered": 1856,
      "Ġpresent": 1857,
      "Ġsunny": 1858,
      "Ġbench": 1859,
      "Ġmil": 1860,
      "ions": 1861,
      "Ġcard": 1862,
      "Ġmad": 1863,
      "Ġstar": 1864,
      "Ġinv": 1865,
      "Ġdriver": 1866,
      "ese": 1867,
      "ces": 1868,
      "Ġboun": 1869,
      "ountain": 1870,
      "Ġsitting": 1871,
      "Ġgigg": 1872,
      "raid": 1873,
      "ĠSammy": 1874,
      "Ġcute": 1875,
      "Ġrelie": 1876,
      "ward": 1877,
      "Ġmist": 1878,
      "aughter": 1879,
      "Ġyear": 1880,
      "Ġstories": 1881,
      "Ġafraid": 1882,
      "itten": 1883,
      "ball": 1884,
      "gged": 1885,
      "Ġpower": 1886,
      "Ġjar": 1887,
      "Ġcozy": 1888,
      "Ġround": 1889,
      "Ġwhist": 1890,
      "Ġcolour": 1891,
      "Ġdanced": 1892,
      "Ġpatient": 1893,
      "Ġpurple": 1894,
      "pe": 1895,
      "Ġkey": 1896,
      "Ġsnowman": 1897,
      "uched": 1898,
      "Ġtouched": 1899,
      "ining": 1900,
      "Of": 1901,
      "Ġhello": 1902,
      "pping": 1903,
      "Ġcreature": 1904,
      "let": 1905,
      "shine": 1906,
      "Ġpiece": 1907,
      "Ġeas": 1908,
      "Ġlift": 1909,
      "board": 1910,
      "og": 1911,
      "Ġsunshine": 1912,
      "Ġshapes": 1913,
      "Ġmilk": 1914,
      "Ġletter": 1915,
      "Ġdaughter": 1916,
      "thday": 1917,
      "Ġcir": 1918,
      "Ġpudd": 1919,
      "Ġdays": 1920,
      "Ġnothing": 1921,
      "Ġexciting": 1922,
      "Hey": 1923,
      "Ġswimming": 1924,
      "Ġbottle": 1925,
      "Ġaccidentally": 1926,
      "to": 1927,
      "eth": 1928,
      "Ġwra": 1929,
      "Ġegg": 1930,
      "Ġwatching": 1931,
      "sting": 1932,
      "Ġlife": 1933,
      "Ġbought": 1934,
      "Ġce": 1935,
      "Ġdisco": 1936,
      "Ġpath": 1937,
      "ĠCh": 1938,
      "Ġhope": 1939,
      "Ġholding": 1940,
      "unt": 1941,
      "Ġinc": 1942,
      "Ġking": 1943,
      "Ġgives": 1944,
      "Ġbush": 1945,
      "Ġfarm": 1946,
      "Ġinstead": 1947,
      "Good": 1948,
      "Ġintere": 1949,
      "ĠMittens": 1950,
      "Ġrelieved": 1951,
      "pa": 1952,
      "Ġbirthday": 1953,
      "Ġgrand": 1954,
      "ize": 1955,
      "Ġear": 1956,
      "alm": 1957,
      "Ġjourney": 1958,
      "Ġfing": 1959,
      "Ġgrab": 1960,
      "Ġstreet": 1961,
      "ost": 1962,
      "ĠSomet": 1963,
      "ness": 1964,
      "Ġimag": 1965,
      "Ġfit": 1966,
      "adow": 1967,
      "Ġcrayons": 1968,
      "ity": 1969,
      "epend": 1970,
      "Ġanyone": 1971,
      "read": 1972,
      "Ġpract": 1973,
      "Ġsmelled": 1974,
      "Ġsharp": 1975,
      "Ġrespect": 1976,
      "Ġroad": 1977,
      "Ġvill": 1978,
      "Ġpeace": 1979,
      "Ġtasty": 1980,
      "fish": 1981,
      "Ġlucky": 1982,
      "Ġcomfort": 1983,
      "Ġres": 1984,
      "Ġcheese": 1985,
      "els": 1986,
      "Ġkick": 1987,
      "Ġspo": 1988,
      "Ġsmiling": 1989,
      "Ġret": 1990,
      "Ġforever": 1991,
      "Ġwrite": 1992,
      "oose": 1993,
      "Ġsearched": 1994,
      "Ġact": 1995,
      "Ġsur": 1996,
      "irt": 1997,
      "Ġpointed": 1998,
      "Ġonto": 1999,
      "Ġfeather": 2000,
      "Ġcor": 2001,
      "amed": 2002,
      "Ġloves": 2003,
      "Ġhuge": 2004,
      "Ġknee": 2005,
      "Ġrolled": 2006,
      "Ġtun": 2007,
      "Ġfoot": 2008,
      "Ġtalked": 2009,
      "Come": 2010,
      "aur": 2011,
      "ert": 2012,
      "Ġplane": 2013,
      "Ġpuzz": 2014,
      "Ġcoin": 2015,
      "ove": 2016,
      "Ġpill": 2017,
      "Ġhealthy": 2018,
      "Ġreturn": 2019,
      "Ġkiss": 2020,
      "blem": 2021,
      "ĠKitty": 2022,
      "Ġlater": 2023,
      "Ġadm": 2024,
      "Ġpromise": 2025,
      "Ġproblem": 2026,
      "Ġorgan": 2027,
      "Ġcouch": 2028,
      "la": 2029,
      "Ġmach": 2030,
      "ont": 2031,
      "Ġcollect": 2032,
      "Ġperson": 2033,
      "Ġwave": 2034,
      "ĠWith": 2035,
      "ĠTogether": 2036,
      "Ġap": 2037,
      "Ġsack": 2038,
      "itch": 2039,
      "Ġputs": 2040,
      "Ġapples": 2041,
      "Ġtasted": 2042,
      "Ġteach": 2043,
      "Ġfront": 2044,
      "Ġzoom": 2045,
      "Ġgather": 2046,
      "Ġclouds": 2047,
      "Ġeag": 2048,
      "Ġinteresting": 2049,
      "Ġwild": 2050,
      "Ġhor": 2051,
      "Ġrope": 2052,
      "Ġhoney": 2053,
      "Ġstorm": 2054,
      "Ġgently": 2055,
      "ĠBe": 2056,
      "Ġcow": 2057,
      "Ġbread": 2058,
      "Ġrob": 2059,
      "Ġcoat": 2060,
      "Ġwhole": 2061,
      "Ġmyster": 2062,
      "Ġsuc": 2063,
      "Ġprot": 2064,
      "Ġsandw": 2065,
      "Ġpush": 2066,
      "ĠEmily": 2067,
      "Ġpass": 2068,
      "cean": 2069,
      "Ġash": 2070,
      "Ġbutton": 2071,
      "Ġplaces": 2072,
      "ced": 2073,
      "Ġocean": 2074,
      "ife": 2075,
      "Ġsaf": 2076,
      "Ġasleep": 2077,
      "Ġhelpful": 2078,
      "izz": 2079,
      "Ġbuilding": 2080,
      "Ġsplas": 2081,
      "Ġscreamed": 2082,
      "ale": 2083,
      "Ġent": 2084,
      "Ġimpre": 2085,
      "Ġneighbor": 2086,
      "Ġrobot": 2087,
      "ĠHow": 2088,
      "Ġwide": 2089,
      "Ġspid": 2090,
      "Ġspicy": 2091,
      "Ġmeet": 2092,
      "Ġlovely": 2093,
      "Ġwaiting": 2094,
      "Ġprotect": 2095,
      "Ġpar": 2096,
      "Ġoven": 2097,
      "Ġscar": 2098,
      "Ġzoo": 2099,
      "ĠGo": 2100,
      "Ġbark": 2101,
      "Ġlad": 2102,
      "Ġslid": 2103,
      "Ġquest": 2104,
      "Ġpretended": 2105,
      "Ġemb": 2106,
      "Ġdi": 2107,
      "Ġpool": 2108,
      "Ġrocket": 2109,
      "Ġwearing": 2110,
      "Ġcheer": 2111,
      "Ġtalking": 2112,
      "Ġforgive": 2113,
      "Ġtrouble": 2114,
      "Ġser": 2115,
      "Ġshining": 2116,
      "Ġgoes": 2117,
      "Ġworm": 2118,
      "ĠMummy": 2119,
      "Ġnut": 2120,
      "Ġthin": 2121,
      "Ġstir": 2122,
      "Ġshr": 2123,
      "Ġpile": 2124,
      "ching": 2125,
      "aser": 2126,
      "Ġfaces": 2127,
      "Ġminut": 2128,
      "Ġsupp": 2129,
      "Ġpop": 2130,
      "Ġconfused": 2131,
      "Ġflut": 2132,
      "Ġtrip": 2133,
      "ĠSometimes": 2134,
      "Ġwom": 2135,
      "Ġmud": 2136,
      "isa": 2137,
      "arra": 2138,
      "Ġdelight": 2139,
      "Ġpour": 2140,
      "Ġembarra": 2141,
      "Ġwoman": 2142,
      "Ġbal": 2143,
      "owed": 2144,
      "Ġwhich": 2145,
      "Ġspent": 2146,
      "Ġducks": 2147,
      "Ġsongs": 2148,
      "Ġladder": 2149,
      "Tom": 2150,
      "ĠSome": 2151,
      "urse": 2152,
      "ĠPeter": 2153,
      "Ġgiant": 2154,
      "Ġgun": 2155,
      "ird": 2156,
      "Ġstep": 2157,
      "Ġfinish": 2158,
      "ery": 2159,
      "Ġrec": 2160,
      "Ġchick": 2161,
      "ular": 2162,
      "ub": 2163,
      "Ġhon": 2164,
      "Ġphone": 2165,
      "Ġfeet": 2166,
      "Ġchocol": 2167,
      "Ġpuddle": 2168,
      "Ġtrust": 2169,
      "Ġvillage": 2170,
      "Ġcorner": 2171,
      "Ġblew": 2172,
      "Ġshy": 2173,
      "getable": 2174,
      "bbles": 2175,
      "arge": 2176,
      "umber": 2177,
      "Ġvegetable": 2178,
      "Ġhorse": 2179,
      "Ġtomorrow": 2180,
      "Ġant": 2181,
      "ĠLisa": 2182,
      "Ġclever": 2183,
      "Ġlay": 2184,
      "Ġcart": 2185,
      "Ġeventually": 2186,
      "Ġspotted": 2187,
      "Ġ'": 2188,
      "Ġsal": 2189,
      "lebr": 2190,
      "Ġkitten": 2191,
      "Ġfixed": 2192,
      "Ġchocolate": 2193,
      "Ġsnake": 2194,
      "Ġhiding": 2195,
      "Ġcelebr": 2196,
      "Ġcoo": 2197,
      "Ġnet": 2198,
      "Ġdrive": 2199,
      "ĠWhile": 2200,
      "top": 2201,
      "Ġwip": 2202,
      "Ġring": 2203,
      "Ġseat": 2204,
      "Ġcloth": 2205,
      "Ġteeth": 2206,
      "eb": 2207,
      "erly": 2208,
      "Ġwash": 2209,
      "Ġmatter": 2210,
      "Ġign": 2211,
      "ato": 2212,
      "Ġspin": 2213,
      "Ġlem": 2214,
      "Ġfold": 2215,
      "Ġtaste": 2216,
      "Ġshirt": 2217,
      "not": 2218,
      "old": 2219,
      "Ġstret": 2220,
      "Ġcannot": 2221,
      "Ġwhenever": 2222,
      "Ġremind": 2223,
      "ancy": 2224,
      "Ġrude": 2225,
      "Ġseek": 2226,
      "Ġlast": 2227,
      "Ġembarrassed": 2228,
      "Ġban": 2229,
      "Ġlarge": 2230,
      "Ġcalm": 2231,
      "ighed": 2232,
      "nny": 2233,
      "Ġtries": 2234,
      "Ġdirt": 2235,
      "Ġhears": 2236,
      "Ġappeared": 2237,
      "Ġbugs": 2238,
      "nic": 2239,
      "ÅĵI": 2240,
      "Ġmachine": 2241,
      "Ġtest": 2242,
      "Ġpicnic": 2243,
      "Ġcarrots": 2244,
      "My": 2245,
      "ĠJohnny": 2246,
      "Ġcookie": 2247,
      "Ġfurry": 2248,
      "Ġspider": 2249,
      "Ġsticks": 2250,
      "lex": 2251,
      "Ġshell": 2252,
      "Ġshelf": 2253,
      "Ġlive": 2254,
      "Ġsmooth": 2255,
      "Ġhar": 2256,
      "Ġbell": 2257,
      "Ġsol": 2258,
      "Ġtea": 2259,
      "Ġanswer": 2260,
      "Ġhel": 2261,
      "Ġmind": 2262,
      "Ġforward": 2263,
      "ĠPlease": 2264,
      "Ġsplash": 2265,
      "gly": 2266,
      "Ġmaybe": 2267,
      "lla": 2268,
      "Ġtool": 2269,
      "Ġpaw": 2270,
      "Ġneckl": 2271,
      "hin": 2272,
      "Ġugly": 2273,
      "box": 2274,
      "ĠTV": 2275,
      "Ġmed": 2276,
      "Ġgas": 2277,
      "ground": 2278,
      "Ġpin": 2279,
      "Ġroar": 2280,
      "den": 2281,
      "ĠLe": 2282,
      "als": 2283,
      "Ġmeant": 2284,
      "Ġcarried": 2285,
      "Ġmoon": 2286,
      "Ġtells": 2287,
      "Ġemp": 2288,
      "Ġfancy": 2289,
      "Ġmot": 2290,
      "Ġflag": 2291,
      "airs": 2292,
      "Ġbarked": 2293,
      "ĠAlice": 2294,
      "Ġstood": 2295,
      "ĠJake": 2296,
      "Ġempty": 2297,
      "Ġburn": 2298,
      "Ġspe": 2299,
      "Ġpolite": 2300,
      "Ġsparkly": 2301,
      "Ġspray": 2302,
      "Ġship": 2303,
      "Ġval": 2304,
      "Ġfighting": 2305,
      "ned": 2306,
      "Ġque": 2307,
      "Ġmountain": 2308,
      "Ġsave": 2309,
      "Ġknocked": 2310,
      "Ġscarf": 2311,
      "ian": 2312,
      "Ġsel": 2313,
      "Ġjumping": 2314,
      "ult": 2315,
      "Ġtightly": 2316,
      "Ġcreative": 2317,
      "ĠSus": 2318,
      "pper": 2319,
      "Ġspread": 2320,
      "obby": 2321,
      "vous": 2322,
      "Ġblow": 2323,
      "Ġtid": 2324,
      "ĠWhy": 2325,
      "ours": 2326,
      "Ġlanded": 2327,
      "ches": 2328,
      "Ġpizz": 2329,
      "Ġknight": 2330,
      "umpy": 2331,
      "Ġdrew": 2332,
      "oin": 2333,
      "Ġwore": 2334,
      "Ġpir": 2335,
      "Ġhidden": 2336,
      "Ġnecklace": 2337,
      "ym": 2338,
      "Ġcage": 2339,
      "Ġcross": 2340,
      "Ġchased": 2341,
      "Ġgrew": 2342,
      "Ġstring": 2343,
      "Ġtreats": 2344,
      "Ġmysterious": 2345,
      "Ġbanan": 2346,
      "ying": 2347,
      "ital": 2348,
      "Ġgar": 2349,
      "Ġgroup": 2350,
      "Ġcrab": 2351,
      "Ġsharing": 2352,
      "Ġwhistle": 2353,
      "Ġashamed": 2354,
      "Ġhosp": 2355,
      "Ġpuzzle": 2356,
      "Ġpri": 2357,
      "Ġdecor": 2358,
      "Ġyelled": 2359,
      "cy": 2360,
      "cap": 2361,
      "Ġhum": 2362,
      "Ġgen": 2363,
      "Ġvase": 2364,
      "ungle": 2365,
      "Ġhospital": 2366,
      "aking": 2367,
      "dle": 2368,
      "ĠTeddy": 2369,
      "Ġple": 2370,
      "Ġner": 2371,
      "ones": 2372,
      "Ġdisappoin": 2373,
      "Ġqueen": 2374,
      "cer": 2375,
      "ĠZ": 2376,
      "ĠLittle": 2377,
      "Ġjungle": 2378,
      "izzy": 2379,
      "Ġselfish": 2380,
      "Ġthese": 2381,
      "Ġbreath": 2382,
      "Ġsleepy": 2383,
      "Ġnervous": 2384,
      "Ġsour": 2385,
      "era": 2386,
      "isp": 2387,
      "Ġclear": 2388,
      "ĠEven": 2389,
      "ĠEverywhere": 2390,
      "Ġchest": 2391,
      "ĠSusie": 2392,
      "dge": 2393,
      "Ġcries": 2394,
      "Ġnods": 2395,
      "Ġgray": 2396,
      "Ġpowerful": 2397,
      "Ġmotor": 2398,
      "Ġreg": 2399,
      "Ġvegetables": 2400,
      "Stop": 2401,
      "fl": 2402,
      "ella": 2403,
      "Ġmissed": 2404,
      "Ġstra": 2405,
      "Ġstanding": 2406,
      "Ġpillow": 2407,
      "Ġlemon": 2408,
      "Ġchew": 2409,
      "Ġgiggled": 2410,
      "Ġav": 2411,
      "Ġbored": 2412,
      "ano": 2413,
      "Ġsnacks": 2414,
      "Where": 2415,
      "Ġbridge": 2416,
      "Ġgarage": 2417,
      "erry": 2418,
      "ony": 2419,
      "Ġgold": 2420,
      "Ġfeed": 2421,
      "Ġpray": 2422,
      "Ġpizza": 2423,
      "Ġdisappointed": 2424,
      "orry": 2425,
      "itter": 2426,
      "Ġwhisp": 2427,
      "Ġdancing": 2428,
      "Ġjew": 2429,
      "pack": 2430,
      "Ġmeadow": 2431,
      "ustr": 2432,
      "Ġdrum": 2433,
      "light": 2434,
      "Ġeasy": 2435,
      "Ġhur": 2436,
      "Ġscr": 2437,
      "ets": 2438,
      "Ġstone": 2439,
      "Ġseed": 2440,
      "Ġcirc": 2441,
      "Ġtick": 2442,
      "unk": 2443,
      "Ġbecome": 2444,
      "Ġpeaceful": 2445,
      "Ben": 2446,
      "Ġsque": 2447,
      "Ġcap": 2448,
      "Ġleaf": 2449,
      "ensive": 2450,
      "Ġbone": 2451,
      "erp": 2452,
      "Ġsaved": 2453,
      "ĠDon": 2454,
      "Ġtears": 2455,
      "Ġbathroom": 2456,
      "Ġexpensive": 2457,
      "Ġminutes": 2458,
      "Ġgener": 2459,
      "Please": 2460,
      "Ġcri": 2461,
      "Ġcand": 2462,
      "Ġfrustr": 2463,
      "eterm": 2464,
      "Ġfinger": 2465,
      "Ġplate": 2466,
      "Ġknowing": 2467,
      "Ġsailed": 2468,
      "Ġpolice": 2469,
      "Ġfil": 2470,
      "Ġdeterm": 2471,
      "ete": 2472,
      "ĠOK": 2473,
      "Ġclown": 2474,
      "Ġunderstood": 2475,
      "most": 2476,
      "Ġline": 2477,
      "Ġpan": 2478,
      "ĠBu": 2479,
      "ĠBella": 2480,
      "Ġfear": 2481,
      "Ġruined": 2482,
      "Ġlegs": 2483,
      "Ġtag": 2484,
      "Ġhours": 2485,
      "cept": 2486,
      "Ġsweetie": 2487,
      "Ġspoil": 2488,
      "ti": 2489,
      "Ġweek": 2490,
      "Ġboard": 2491,
      "Ġmatch": 2492,
      "Ġplants": 2493,
      "Ġsuccess": 2494,
      "Are": 2495,
      "Ġfig": 2496,
      "Ġmic": 2497,
      "ĠBr": 2498,
      "Ġtidy": 2499,
      "Ġwaves": 2500,
      "Ġshore": 2501,
      "Ġalmost": 2502,
      "Ġtaught": 2503,
      "ecially": 2504,
      "ĠRex": 2505,
      "Ġfrustrated": 2506,
      "pecially": 2507,
      "Ġwagged": 2508,
      "ates": 2509,
      "Ġasking": 2510,
      "Ġmessy": 2511,
      "ĠToday": 2512,
      "ĠTweety": 2513,
      "Ġespecially": 2514,
      "Wh": 2515,
      "Ġfake": 2516,
      "Ġgate": 2517,
      "Ġrid": 2518,
      "Ġdrawing": 2519,
      "ual": 2520,
      "oof": 2521,
      "Ġplayground": 2522,
      "Ġclap": 2523,
      "Ġflute": 2524,
      "Ġgenerous": 2525,
      "ĠSt": 2526,
      "Ġexcite": 2527,
      "Ġhang": 2528,
      "illed": 2529,
      "Ġmeasure": 2530,
      "Ġfluffy": 2531,
      "Ġballs": 2532,
      "Ġhopping": 2533,
      "Ġtrue": 2534,
      "Ġanswered": 2535,
      "Ġhonest": 2536,
      "ĠLeo": 2537,
      "ond": 2538,
      "ator": 2539,
      "iger": 2540,
      "Ġexam": 2541,
      "Ġlead": 2542,
      "Ġyourself": 2543,
      "Ġmistake": 2544,
      "Ġboring": 2545,
      "Ġgets": 2546,
      "selves": 2547,
      "Ġpoor": 2548,
      "Ġhurts": 2549,
      "Ġtie": 2550,
      "Ġdest": 2551,
      "Ġpas": 2552,
      "Ġweak": 2553,
      "ĠPete": 2554,
      "Ġcomfortable": 2555,
      "Ġexcitement": 2556,
      "Ġpassed": 2557,
      "land": 2558,
      "mb": 2559,
      "Ġlit": 2560,
      "osaur": 2561,
      "Ġtunn": 2562,
      "Now": 2563,
      "Ġsighed": 2564,
      "reen": 2565,
      "Ġoft": 2566,
      "Ġrad": 2567,
      "Ġkissed": 2568,
      "Ġang": 2569,
      "arth": 2570,
      "Ġcaterp": 2571,
      "Ġgrumpy": 2572,
      "ĠBobo": 2573,
      "Ġoften": 2574,
      "Ġcaterpill": 2575,
      "Ġadd": 2576,
      "ots": 2577,
      "Ġfruits": 2578,
      "uce": 2579,
      "Ġmoving": 2580,
      "Ġsug": 2581,
      "Ġmid": 2582,
      "Ġnumber": 2583,
      "Ġsoap": 2584,
      "ĠDucky": 2585,
      "Ġfridge": 2586,
      "Ġtent": 2587,
      "Ġstuff": 2588,
      "ĠBobby": 2589,
      "Ġsold": 2590,
      "elly": 2591,
      "Ġreturned": 2592,
      "'d": 2593,
      "ĠBl": 2594,
      "Ġknife": 2595,
      "Ġtaken": 2596,
      "Ġsplashed": 2597,
      "Ġbalance": 2598,
      "Ġwis": 2599,
      "Ġtrucks": 2600,
      "issors": 2601,
      "Ġcaterpillar": 2602,
      "Ġlog": 2603,
      "Ġspend": 2604,
      "Ġprince": 2605,
      "Ġmighty": 2606,
      "Ġdisappeared": 2607,
      "Ġgathered": 2608,
      "Ġsugar": 2609,
      "Ġmiddle": 2610,
      "Sorry": 2611,
      "Tim": 2612,
      "Ġwagon": 2613,
      "anut": 2614,
      "elp": 2615,
      "Ġjam": 2616,
      "Ġclass": 2617,
      "Ġscissors": 2618,
      "Ġglue": 2619,
      "Ġwalks": 2620,
      "Ġpleased": 2621,
      "Ġer": 2622,
      "Ġmummy": 2623,
      "Ġpay": 2624,
      "illi": 2625,
      "Ġnod": 2626,
      "Ġworking": 2627,
      "Ġpicks": 2628,
      "Ġjog": 2629,
      "Ġdinosaur": 2630,
      "Ġpacked": 2631,
      "Ġhorn": 2632,
      "Ġlazy": 2633,
      "Ġchange": 2634,
      "Ġcheck": 2635,
      "Ġjoke": 2636,
      "Ġcloset": 2637,
      "ffe": 2638,
      "Ġham": 2639,
      "ĠIf": 2640,
      "Ġlock": 2641,
      "?\".": 2642,
      "Ġmole": 2643,
      "Ġdrop": 2644,
      "Ġescap": 2645,
      "arl": 2646,
      "Ġdogs": 2647,
      "Ġmarket": 2648,
      "Who": 2649,
      "Ġdish": 2650,
      "Ġcover": 2651,
      "Ġtwirl": 2652,
      "Ġglass": 2653,
      "Ġfamous": 2654,
      "Ġtowel": 2655,
      "iness": 2656,
      "Ġears": 2657,
      "Ġdecide": 2658,
      "Ġcontent": 2659,
      "Ġcraw": 2660,
      "Ġeggs": 2661,
      "Ġincred": 2662,
      "Ġind": 2663,
      "Ġsil": 2664,
      "Ġbake": 2665,
      "oop": 2666,
      "Ġbody": 2667,
      "iff": 2668,
      "Ġcalling": 2669,
      "Ġdrank": 2670,
      "Ġcrawled": 2671,
      "Ġwander": 2672,
      "Ġmir": 2673,
      "ating": 2674,
      "Ġrough": 2675,
      "Ġbedroom": 2676,
      "Ġdiscovered": 2677,
      "Ġdetermined": 2678,
      "Ġed": 2679,
      "Ġdepend": 2680,
      "aged": 2681,
      "Ġglow": 2682,
      "Ġthankful": 2683,
      "Ġfeathers": 2684,
      "Ġsandwich": 2685,
      "Help": 2686,
      "Ġswan": 2687,
      "ĠMrs": 2688,
      "Ġwheel": 2689,
      "Ġgrandpa": 2690,
      "ination": 2691,
      "Ġyarn": 2692,
      "Ġcleaned": 2693,
      "Ġeye": 2694,
      "Ġrat": 2695,
      "Ġstones": 2696,
      "Ġdolp": 2697,
      "ĠEnd": 2698,
      "Ġlamp": 2699,
      "Ġbrush": 2700,
      "Ġcoins": 2701,
      "Ġcovered": 2702,
      "Ġshows": 2703,
      "Ġpointing": 2704,
      "Ġmedic": 2705,
      "port": 2706,
      "Ġfather": 2707,
      "Ġlying": 2708,
      "usual": 2709,
      "Ġord": 2710,
      "Ġneeds": 2711,
      "Ġgrown": 2712,
      "Ġadventur": 2713,
      "Ġunusual": 2714,
      "Ġmedicine": 2715,
      "ror": 2716,
      "ĠMar": 2717,
      "Ġboss": 2718,
      "asing": 2719,
      "Ġchoose": 2720,
      "Ġpeanut": 2721,
      "aul": 2722,
      "Ġorganized": 2723,
      "imed": 2724,
      "Ġrare": 2725,
      "Ġweal": 2726,
      "ushed": 2727,
      "Ġwolf": 2728,
      "Ġcrawl": 2729,
      "Ġsmelly": 2730,
      "Ġhappening": 2731,
      "Ġcolourful": 2732,
      "Ġincredible": 2733,
      "bin": 2734,
      "Ġisland": 2735,
      "Ġmod": 2736,
      "Ġskipped": 2737,
      "ĠRose": 2738,
      "Ġrelax": 2739,
      "Ġtunnel": 2740,
      "Ġadventurous": 2741,
      "Ġweird": 2742,
      "Ġflash": 2743,
      "Ġfool": 2744,
      "ote": 2745,
      "Ġaccept": 2746,
      "Ġdistance": 2747,
      "Ġchicken": 2748,
      "edient": 2749,
      "Ġborrow": 2750,
      "ilt": 2751,
      "ork": 2752,
      "Ġthick": 2753,
      "Ġbrilli": 2754,
      "Ġboxes": 2755,
      "Ġsmaller": 2756,
      "Ġmagn": 2757,
      "Ġdig": 2758,
      "Ġmoms": 2759,
      "Ġlose": 2760,
      "Ġwalls": 2761,
      "umbers": 2762,
      "Ġdizzy": 2763,
      "Ġlicked": 2764,
      "Ġbranc": 2765,
      "Ġvan": 2766,
      "Ġpicking": 2767,
      "Ġfalls": 2768,
      "Ġwrapped": 2769,
      "Ġjewel": 2770,
      "Ġdependable": 2771,
      "Ġbrilliant": 2772,
      "Ġbranches": 2773,
      "kin": 2774,
      "Ġhunt": 2775,
      "Ġcop": 2776,
      "Ġmap": 2777,
      "ature": 2778,
      "Ġones": 2779,
      "Ġword": 2780,
      "Ġfrown": 2781,
      "Ġimpressed": 2782,
      "ĠBrown": 2783,
      "gy": 2784,
      "Ġbitter": 2785,
      "ĠSn": 2786,
      "Ġsheep": 2787,
      "ĠRed": 2788,
      "Ġcabin": 2789,
      "Ġsafely": 2790,
      "Ġmirror": 2791,
      "hip": 2792,
      "Ġpil": 2793,
      "Ġow": 2794,
      "Ġskin": 2795,
      "Ġstronger": 2796,
      "Ġsounded": 2797,
      "ĠNo": 2798,
      "Ġrich": 2799,
      "emo": 2800,
      "ĠNemo": 2801,
      "Ġmixed": 2802,
      "Ġobedient": 2803,
      "Ġfoolish": 2804,
      "Me": 2805,
      "gu": 2806,
      "Ġnumbers": 2807,
      "ĠMy": 2808,
      "ĠEventually": 2809,
      "Ġbull": 2810,
      "Ġoffered": 2811,
      "Ġwrote": 2812,
      "Ġbottom": 2813,
      "Ġstudy": 2814,
      "Ġbanana": 2815,
      "work": 2816,
      "Ġwand": 2817,
      "Ġfis": 2818,
      "Ġfine": 2819,
      "Ġnoisy": 2820,
      "Ġtwig": 2821,
      "ĠTweetie": 2822,
      "Ġangel": 2823,
      "Ġwealthy": 2824,
      "Ġtank": 2825,
      "Ġsight": 2826,
      "ina": 2827,
      "Ġonce": 2828,
      "alous": 2829,
      "Ġboys": 2830,
      "ested": 2831,
      "Ġcrown": 2832,
      "Ġjealous": 2833,
      "aw": 2834,
      "aid": 2835,
      "het": 2836,
      "imp": 2837,
      "Ġsell": 2838,
      "Ġkindness": 2839,
      "Ġcrack": 2840,
      "Ġbuttons": 2841,
      "Ġsmoke": 2842,
      "Ġcher": 2843,
      "Ġroof": 2844,
      "ured": 2845,
      "Ġmanaged": 2846,
      "Ġrode": 2847,
      "Ġchase": 2848,
      "Ġbubbles": 2849,
      "Ġteam": 2850,
      "uggled": 2851,
      "Ġrecord": 2852,
      "Ġharm": 2853,
      "ĠBlue": 2854,
      "Ġedge": 2855,
      "appy": 2856,
      "fa": 2857,
      "ique": 2858,
      "Ġsugg": 2859,
      "anged": 2860,
      "ages": 2861,
      "aghet": 2862,
      "ĠFred": 2863,
      "Ġbelonged": 2864,
      "Ġeager": 2865,
      "Ġquestions": 2866,
      "aghetti": 2867,
      "fic": 2868,
      "Ġter": 2869,
      "Ġcone": 2870,
      "Ġspaghetti": 2871,
      "Ġscare": 2872,
      "Ġunique": 2873,
      "Ġgiving": 2874,
      "Ġpainting": 2875,
      "Ġpainted": 2876,
      "body": 2877,
      "fast": 2878,
      "Ġcorn": 2879,
      "Ġdove": 2880,
      "ĠFr": 2881,
      "Ġuseful": 2882,
      "Ġlights": 2883,
      "Ġmarble": 2884,
      "Ġturt": 2885,
      "Ġmelt": 2886,
      "Ġenvel": 2887,
      "Ġdiffic": 2888,
      "Ġhats": 2889,
      "Ġsquare": 2890,
      "Ġshoot": 2891,
      "Ġbreakfast": 2892,
      "olog": 2893,
      "Ġadded": 2894,
      "Ġshake": 2895,
      "Ġsunfl": 2896,
      "Ġguess": 2897,
      "Ġapolog": 2898,
      "Ġfigure": 2899,
      "cient": 2900,
      "we": 2901,
      "rag": 2902,
      "Ġyours": 2903,
      "Ġgrace": 2904,
      "ĠPolly": 2905,
      "Ġdeer": 2906,
      "Ġcrayon": 2907,
      "Ġhipp": 2908,
      "Ġok": 2909,
      "Ġfork": 2910,
      "Ġearth": 2911,
      "Ġjelly": 2912,
      "umbled": 2913,
      "Ġdifficult": 2914,
      "oppy": 2915,
      "Ġpant": 2916,
      "Ġeld": 2917,
      "Ġancient": 2918,
      "Ġtape": 2919,
      "Ġprint": 2920,
      "Ġdesk": 2921,
      "laimed": 2922,
      "Ġterri": 2923,
      "Ġpee": 2924,
      "Ġkinds": 2925,
      "ject": 2926,
      "oe": 2927,
      "rop": 2928,
      "und": 2929,
      "yal": 2930,
      "Ġcro": 2931,
      "irp": 2932,
      "Ġstri": 2933,
      "Ġexclaimed": 2934,
      "Ġsearch": 2935,
      "Ġtools": 2936,
      "Ġturtle": 2937,
      "Here": 2938,
      "ye": 2939,
      "zed": 2940,
      "Ġtoug": 2941,
      "ention": 2942,
      "Ġcounted": 2943,
      "Ġpenny": 2944,
      "Ġpractice": 2945,
      "Ġenvelope": 2946,
      "Well": 2947,
      "Ġtummy": 2948,
      "keep": 2949,
      "Ġhelps": 2950,
      "umsy": 2951,
      "Ġcost": 2952,
      "Ġagainst": 2953,
      "ĠCl": 2954,
      "Ġsnee": 2955,
      "arsh": 2956,
      "Ġrealised": 2957,
      "Ġbushes": 2958,
      "Ġbags": 2959,
      "Ġsquee": 2960,
      "pes": 2961,
      "Ġicy": 2962,
      "Ġtiger": 2963,
      "Ġdull": 2964,
      "orge": 2965,
      "Ġperform": 2966,
      "Ġdreams": 2967,
      "Ġballoons": 2968,
      "Ġcheerful": 2969,
      "na": 2970,
      "head": 2971,
      "ress": 2972,
      "Ġfre": 2973,
      "Ġlow": 2974,
      "Ġthose": 2975,
      "Ġlean": 2976,
      "Ġdreamed": 2977,
      "Ġattic": 2978,
      "Ġbounce": 2979,
      "Ġlifted": 2980,
      "Ġhippo": 2981,
      "Be": 2982,
      "Ġtask": 2983,
      "Ġaunt": 2984,
      "Ġcudd": 2985,
      "ory": 2986,
      "Ġhappiness": 2987,
      "Ġabove": 2988,
      "Ġserious": 2989,
      "Ġflashlight": 2990,
      "ĠSm": 2991,
      "ouses": 2992,
      "Ġlouder": 2993,
      "ctus": 2994,
      "Ġunl": 2995,
      "Ġenjoying": 2996,
      "Ġusing": 2997,
      "Ġlaughs": 2998,
      "ĠGrand": 2999,
      "Ġtough": 3000,
      "Ġext": 3001,
      "Ġsuit": 3002,
      "Ġfour": 3003,
      "Ġrice": 3004,
      "amond": 3005,
      "Ġloyal": 3006,
      "Ġseem": 3007,
      "Ġchar": 3008,
      "They": 3009,
      "ines": 3010,
      "Ġnurse": 3011,
      "Ġsofa": 3012,
      "ĠDan": 3013,
      "ĠGe": 3014,
      "Ġdreaming": 3015,
      "Ġcactus": 3016,
      "Ġdiamond": 3017,
      "Ġeraser": 3018,
      "ps": 3019,
      "Ġhouses": 3020,
      "Ġlibr": 3021,
      "oph": 3022,
      "Ġscale": 3023,
      "Ġscreen": 3024,
      "Ġsword": 3025,
      "Ġtwist": 3026,
      "Ġmov": 3027,
      "Ġfier": 3028,
      "Ġloudly": 3029,
      "Ġmeans": 3030,
      "Ġfavour": 3031,
      "Ġjuicy": 3032,
      "Ġnuts": 3033,
      "Ġpirate": 3034,
      "Ġscrat": 3035,
      "Ġbossy": 3036,
      "cil": 3037,
      "Ġsoar": 3038,
      "rage": 3039,
      "Ġmeal": 3040,
      "Ġslipped": 3041,
      "oby": 3042,
      "Ġbuilt": 3043,
      "Ġcleaning": 3044,
      "Ġstove": 3045,
      "Ġmarch": 3046,
      "Ġpencil": 3047,
      "Ġindepend": 3048,
      "time": 3049,
      "wards": 3050,
      "ĠU": 3051,
      "inary": 3052,
      "Ġcards": 3053,
      "Ġnotice": 3054,
      "Ġwhale": 3055,
      "Ġclumsy": 3056,
      "Ġharder": 3057,
      "Ġzipp": 3058,
      "Ow": 3059,
      "ready": 3060,
      "ĠToby": 3061,
      "Ġstairs": 3062,
      "Ġalready": 3063,
      "Ġknows": 3064,
      "Ġleaving": 3065,
      "Ġpatch": 3066,
      "upid": 3067,
      "Ġinvited": 3068,
      "Ġcooking": 3069,
      "Ġreminded": 3070,
      "Ġcircles": 3071,
      "Ġdolphin": 3072,
      "ĠGeorge": 3073,
      "Ġfavourite": 3074,
      "inal": 3075,
      "omed": 3076,
      "ĠSoph": 3077,
      "Ġyog": 3078,
      "Ġstream": 3079,
      "ĠWhenever": 3080,
      "Ġoffice": 3081,
      "Ġdead": 3082,
      "Ġrub": 3083,
      "Ġbatter": 3084,
      "Ġsunflower": 3085,
      "Ġelderly": 3086,
      "vice": 3087,
      "Ġtimes": 3088,
      "ither": 3089,
      "Ġgem": 3090,
      "Ġgoat": 3091,
      "Ġthemselves": 3092,
      "Ġthoughtful": 3093,
      "Ġshowing": 3094,
      "Ġpale": 3095,
      "Ġgasped": 3096,
      "Ġcam": 3097,
      "Ġnorm": 3098,
      "iginal": 3099,
      "Ġplayful": 3100,
      "ĠMike": 3101,
      "Ġspun": 3102,
      "Ġsaying": 3103,
      "Ġcarp": 3104,
      "Ġlearning": 3105,
      "ĠNext": 3106,
      "ola": 3107,
      "Ġdelighted": 3108,
      "Ġsuccessful": 3109,
      "Ġsuggested": 3110,
      "Ġpants": 3111,
      "Ġfierce": 3112,
      "Ġindependent": 3113,
      "Ġber": 3114,
      "Ġwake": 3115,
      "ately": 3116,
      "Ġstamp": 3117,
      "ĠMark": 3118,
      "Ġnosy": 3119,
      "ĠYour": 3120,
      "ĠPe": 3121,
      "ipe": 3122,
      "Ġarrow": 3123,
      "Ġbald": 3124,
      "Ġprep": 3125,
      "Ġguard": 3126,
      "Ġsalad": 3127,
      "Ġhelm": 3128,
      "Ġterrible": 3129,
      "Ġextra": 3130,
      "Ġberries": 3131,
      "How": 3132,
      "com": 3133,
      "aroo": 3134,
      "anger": 3135,
      "etit": 3136,
      "Ġref": 3137,
      "Ġotter": 3138,
      "Ġexcitedly": 3139,
      "Ġexplored": 3140,
      "ÅĵLet": 3141,
      "Ġzip": 3142,
      "Ġmetal": 3143,
      "apping": 3144,
      "angaroo": 3145,
      "keeper": 3146,
      "Ġwashed": 3147,
      "Ġstupid": 3148,
      "Ġkangaroo": 3149,
      "uring": 3150,
      "Ġspilled": 3151,
      "Ġclay": 3152,
      "Ġswe": 3153,
      "Ġoriginal": 3154,
      "Ġsne": 3155,
      "Ġbrightly": 3156,
      "Ġrubbed": 3157,
      "Ġcompass": 3158,
      "Ġcompetit": 3159,
      "Ġstubb": 3160,
      "Ġresc": 3161,
      "Ġpoured": 3162,
      "Ġwiped": 3163,
      "Ġstraw": 3164,
      "Ġhammer": 3165,
      "Ġescape": 3166,
      "Ġfresh": 3167,
      "Ġnormal": 3168,
      "corn": 3169,
      "Ġbees": 3170,
      "illa": 3171,
      "Ġvi": 3172,
      "uddy": 3173,
      "Ġwindows": 3174,
      "oomy": 3175,
      "Ġcircle": 3176,
      "See": 3177,
      "loo": 3178,
      "lies": 3179,
      "Ġing": 3180,
      "Ġbri": 3181,
      "Ġbeak": 3182,
      "Ġshone": 3183,
      "Ġchanged": 3184,
      "ĠDave": 3185,
      "Ġpost": 3186,
      "Ġways": 3187,
      "ache": 3188,
      "Ġdoesn": 3189,
      "Ġtomato": 3190,
      "Ġkicked": 3191,
      "Ġprize": 3192,
      "Ġregular": 3193,
      "Ġspoiled": 3194,
      "Ġcamera": 3195,
      "Ġcush": 3196,
      "Ġgoose": 3197,
      "Ġstage": 3198,
      "Ġknock": 3199,
      "ief": 3200,
      "iable": 3201,
      "Ġjoined": 3202,
      "Ġreliable": 3203,
      "redient": 3204,
      "Ġpengu": 3205,
      "Ġadmired": 3206,
      "Ġsolve": 3207,
      "Ġwhispered": 3208,
      "Ġseeds": 3209,
      "Ġdestro": 3210,
      "Ġstubborn": 3211,
      "Ġingredient": 3212,
      "lev": 3213,
      "Ġhero": 3214,
      "Ġforth": 3215,
      "Ġlocked": 3216,
      "Ġjack": 3217,
      "Ġleop": 3218,
      "Ġcheap": 3219,
      "gging": 3220,
      "aby": 3221,
      "isk": 3222,
      "Ġyet": 3223,
      "Ġsock": 3224,
      "Ġtrump": 3225,
      "ĠAndy": 3226,
      "berries": 3227,
      "Ġstickers": 3228,
      "Ġdelicate": 3229,
      "Ġwarned": 3230,
      "Ġpopcorn": 3231,
      "ray": 3232,
      "arian": 3233,
      "Ġliz": 3234,
      "alk": 3235,
      "Ġcareless": 3236,
      "ĠJoey": 3237,
      "Ġstranger": 3238,
      "Ġboats": 3239,
      "Ġveil": 3240,
      "Ġcollar": 3241,
      "Ġearly": 3242,
      "Ġcelebrate": 3243,
      "Ġvalu": 3244,
      "ĠGrandpa": 3245,
      "Ġingredients": 3246,
      "Ġbump": 3247,
      "Ġfrag": 3248,
      "ĠLola": 3249,
      "Ġstumbled": 3250,
      "Ġpepper": 3251,
      "Ġenv": 3252,
      "Ġtowers": 3253,
      "cod": 3254,
      "ĠKate": 3255,
      "uper": 3256,
      "Ġtoast": 3257,
      "Ġhive": 3258,
      "Ġfu": 3259,
      "Ġfountain": 3260,
      "Ġcity": 3261,
      "atter": 3262,
      "ĠLook": 3263,
      "Ġfright": 3264,
      "ud": 3265,
      "Ġlaser": 3266,
      "ilty": 3267,
      "Ġgum": 3268,
      "Ġstat": 3269,
      "Ġenorm": 3270,
      "Ġadvice": 3271,
      "ations": 3272,
      "ĠGrace": 3273,
      "Ġguilty": 3274,
      "Ġmagnet": 3275,
      "Ġcrocod": 3276,
      "Ġcompassion": 3277,
      "Ġenormous": 3278,
      "Ġtooth": 3279,
      "ira": 3280,
      "ĠBuddy": 3281,
      "ĠAlex": 3282,
      "ĠElla": 3283,
      "Ġhandle": 3284,
      "Ġeng": 3285,
      "Ġstops": 3286,
      "Ġsett": 3287,
      "Ġbarber": 3288,
      "Ġpige": 3289,
      "Ġdesign": 3290,
      "Ġobject": 3291,
      "Ġimpress": 3292,
      "Ġquestion": 3293,
      "Ġthinking": 3294,
      "Ġcarpet": 3295,
      "Ġvaluable": 3296,
      "eer": 3297,
      "gust": 3298,
      "Ġson": 3299,
      "Ġnature": 3300,
      "Ġreind": 3301,
      "Ġcoco": 3302,
      "Ġlaw": 3303,
      "ĠKim": 3304,
      "Ġcounting": 3305,
      "Ġshape": 3306,
      "Ġimagined": 3307,
      "ĠSnow": 3308,
      "Ġtrumpet": 3309,
      "Ġcocoa": 3310,
      "emy": 3311,
      "Ġtied": 3312,
      "Ġph": 3313,
      "Ġbloom": 3314,
      "Ġsniff": 3315,
      "berry": 3316,
      "Ġdisgust": 3317,
      "Ġopens": 3318,
      "Ġcharming": 3319,
      "Ġreindeer": 3320,
      "Ġax": 3321,
      "Ġpow": 3322,
      "Ġrushed": 3323,
      "Ġnames": 3324,
      "Ġfinding": 3325,
      "Ġskip": 3326,
      "Ġenc": 3327,
      "Ġcomb": 3328,
      "Ġarg": 3329,
      "Ġcomplet": 3330,
      "Ġsearching": 3331,
      "Ġresist": 3332,
      "Ġparade": 3333,
      "Ġhumble": 3334,
      "Ġcandle": 3335,
      "Ġlizard": 3336,
      "Ġfragile": 3337,
      "cing": 3338,
      "Ġmay": 3339,
      "Ġthirst": 3340,
      "Ġur": 3341,
      "Ġrefused": 3342,
      "Ġclock": 3343,
      "ement": 3344,
      "ĠPap": 3345,
      "ÅĵYes": 3346,
      "Ġmissing": 3347,
      "Ġcricket": 3348,
      "There": 3349,
      "Ġflex": 3350,
      "llie": 3351,
      "Ġumb": 3352,
      "Ġstation": 3353,
      "Ġrece": 3354,
      "!\".": 3355,
      "Ġspace": 3356,
      "ict": 3357,
      "Ġolder": 3358,
      "ĠRo": 3359,
      "Ġtrains": 3360,
      "Ġperm": 3361,
      "Ġreading": 3362,
      "Ġfingers": 3363,
      "Ġpeeked": 3364,
      "Ġcostum": 3365,
      "Ġdestroy": 3366,
      "Ġfrightened": 3367,
      "Ġumbre": 3368,
      "iv": 3369,
      "Ġwaff": 3370,
      "Ġled": 3371,
      "ision": 3372,
      "orant": 3373,
      "Ġrep": 3374,
      "Ġtrop": 3375,
      "Ġsleeping": 3376,
      "Ġpotato": 3377,
      "Ġchose": 3378,
      "Ġordinary": 3379,
      "ĠMaria": 3380,
      "Ġgraceful": 3381,
      "comfort": 3382,
      "Ġthirsty": 3383,
      "dom": 3384,
      "Ġhoop": 3385,
      "Ġmis": 3386,
      "Ġmop": 3387,
      "Ġthief": 3388,
      "Ġrug": 3389,
      "Ġjug": 3390,
      "iches": 3391,
      "Ġleash": 3392,
      "Ġflour": 3393,
      "Ġtrunk": 3394,
      "Ġmoder": 3395,
      "Ġproudly": 3396,
      "Ġmaze": 3397,
      "Ġbreat": 3398,
      "Ġbelt": 3399,
      "Ġhairy": 3400,
      "Ġfootball": 3401,
      "Ġhurry": 3402,
      "Ġwing": 3403,
      "llip": 3404,
      "Ġload": 3405,
      "Ġfriendship": 3406,
      "ellig": 3407,
      "Ġintellig": 3408,
      "Ġraced": 3409,
      "Ġimpro": 3410,
      "Ġunpack": 3411,
      "Ġuncomfort": 3412,
      "Ġsparkled": 3413,
      "Ġmailbox": 3414,
      "Ġcrocodile": 3415,
      "Ġaxe": 3416,
      "Ġflexible": 3417,
      "Ġtrophy": 3418,
      "llipop": 3419,
      "Ġuncomfortable": 3420,
      "He": 3421,
      "io": 3422,
      "Ġbase": 3423,
      "Ġpurse": 3424,
      "Ġsauce": 3425,
      "Ġbean": 3426,
      "ugged": 3427,
      "Ġlollipop": 3428,
      "ĠJerry": 3429,
      "Ġallowed": 3430,
      "opus": 3431,
      "Ġsorts": 3432,
      "ctopus": 3433,
      "âĤ¬âĢ": 3434,
      "Ġtrash": 3435,
      "Ġtelling": 3436,
      "Ġbrothers": 3437,
      "Ġsteal": 3438,
      "Ġattract": 3439,
      "Ġsurf": 3440,
      "ÅĵLetÃ¢": 3441,
      "Ġstatue": 3442,
      "Ġpigeon": 3443,
      "Ġmodern": 3444,
      "cope": 3445,
      "host": 3446,
      "Ġoctopus": 3447,
      "Ġrepe": 3448,
      "Ġanx": 3449,
      "Ġhose": 3450,
      "Ġrules": 3451,
      "Ġrestaur": 3452,
      "Ġcardboard": 3453,
      "Ġwrap": 3454,
      "Ġrespectful": 3455,
      "Ġsandwiches": 3456,
      "Ġignorant": 3457,
      "Ġavo": 3458,
      "Ġenvious": 3459,
      "Ġphot": 3460,
      "Ġrestaurant": 3461,
      "awn": 3462,
      "cu": 3463,
      "Ġtem": 3464,
      "Ġsym": 3465,
      "Ġvest": 3466,
      "Ġtravel": 3467,
      "Ġdeliver": 3468,
      "Ġspring": 3469,
      "Ġmicrop": 3470,
      "Ġharmless": 3471,
      "Ġviol": 3472,
      "Ġleopard": 3473,
      "Ġintelligent": 3474,
      "Ġmicrophone": 3475,
      "Go": 3476,
      "kn": 3477,
      "Ġsudden": 3478,
      "Ġbin": 3479,
      "ince": 3480,
      "Ġhay": 3481,
      "Ġcell": 3482,
      "Ġcamp": 3483,
      "Ġdug": 3484,
      "Ġchain": 3485,
      "ÅĵIt": 3486,
      "ÅĵWhat": 3487,
      "ÅĵThat": 3488,
      "Ġlistening": 3489,
      "Ġhung": 3490,
      "osie": 3491,
      "Ġpackage": 3492,
      "Ġwheat": 3493,
      "Ġdiscover": 3494,
      "Ġslides": 3495,
      "Ġfilm": 3496,
      "Ġimpressive": 3497,
      "Ġdisgusting": 3498,
      "bled": 3499,
      "Ġwire": 3500,
      "render": 3501,
      "Ġcur": 3502,
      "Ġgor": 3503,
      "Ġbeet": 3504,
      "Ġshocked": 3505,
      "ecause": 3506,
      "Ġbirdie": 3507,
      "iew": 3508,
      "Ġcrazy": 3509,
      "bol": 3510,
      "Ġgrowing": 3511,
      "Ġencou": 3512,
      "Ġsuper": 3513,
      "Ġghost": 3514,
      "ado": 3515,
      "ĠWill": 3516,
      "Ġalert": 3517,
      "Ġstarts": 3518,
      "Ġmush": 3519,
      "Ġchasing": 3520,
      "robe": 3521,
      "Ġview": 3522,
      "Ġacorn": 3523,
      "ĠSmith": 3524,
      "Ġengine": 3525,
      "ĠPapa": 3526,
      "Ġanxious": 3527,
      "Ġsymbol": 3528,
      "Ġviolin": 3529,
      "known": 3530,
      "Ġmushroom": 3531,
      "Ġbarn": 3532,
      "Ġmask": 3533,
      "ĠSandy": 3534,
      "Ġmem": 3535,
      "Ġlab": 3536,
      "ĠRosie": 3537,
      "Ġcrow": 3538,
      "Ġcarrying": 3539,
      "Ġsurrender": 3540,
      "Ġdecorate": 3541,
      "Ġmovie": 3542,
      "Ġhelmet": 3543,
      "ĠSnowy": 3544,
      "Ġgorilla": 3545,
      "Ġtur": 3546,
      "Ġtoil": 3547,
      "Ġhedge": 3548,
      "Ġhalf": 3549,
      "Ġscatter": 3550,
      "Ġnicely": 3551,
      "Ġending": 3552,
      "Ġbrighter": 3553,
      "Ġshells": 3554,
      "Ġpilot": 3555,
      "Ġzipper": 3556,
      "Ġumbrella": 3557,
      "Ġsend": 3558,
      "Ġoat": 3559,
      "Ġguit": 3560,
      "ĠSh": 3561,
      "Ġbeep": 3562,
      "ric": 3563,
      "Ġshield": 3564,
      "ĠAre": 3565,
      "tern": 3566,
      "icop": 3567,
      "ĠAnnie": 3568,
      "used": 3569,
      "Ġholds": 3570,
      "Ġspoke": 3571,
      "Ġparrot": 3572,
      "Ġhelicop": 3573,
      "Ġcushion": 3574,
      "Ġhelicopter": 3575,
      "cano": 3576,
      "Ġbicy": 3577,
      "imney": 3578,
      "Ġreco": 3579,
      "Ġchimney": 3580,
      "istent": 3581,
      "Ġpebble": 3582,
      "Ġcooler": 3583,
      "Ġpracticed": 3584,
      "Ġstretched": 3585,
      "Ġhunter": 3586,
      "Ġturkey": 3587,
      "gn": 3588,
      "gest": 3589,
      "Ġtire": 3590,
      "Ġwitch": 3591,
      "Ġharsh": 3592,
      "ĠTony": 3593,
      "Ġped": 3594,
      "Ġpump": 3595,
      "Ġoak": 3596,
      "ĠHere": 3597,
      "Ġyawn": 3598,
      "Ġshiver": 3599,
      "Ġbiggest": 3600,
      "Ġneat": 3601,
      "Ġimpat": 3602,
      "Ġvol": 3603,
      "Ġshouts": 3604,
      "Ġcreatures": 3605,
      "Ġstirred": 3606,
      "Ġcompassionate": 3607,
      "ience": 3608,
      "rn": 3609,
      "under": 3610,
      "Ġscrew": 3611,
      "Ġpole": 3612,
      "Ġanywhere": 3613,
      "Ġforgave": 3614,
      "Ġpiano": 3615,
      "Ġneighbour": 3616,
      "Ġplaced": 3617,
      "Ġattractive": 3618,
      "Ġimpatient": 3619,
      "Give": 3620,
      "ikes": 3621,
      "Ġfat": 3622,
      "htub": 3623,
      "Ġcane": 3624,
      "Ġtray": 3625,
      "Ġneedle": 3626,
      "Ġsnuggled": 3627,
      "Ġunknown": 3628,
      "Ġjolly": 3629,
      "Ġpulls": 3630,
      "Ġdrawer": 3631,
      "Ġbehave": 3632,
      "Ġshoe": 3633,
      "Ġsailor": 3634,
      "Ġwheels": 3635,
      "Ġenth": 3636,
      "cycle": 3637,
      "gs": 3638,
      "noon": 3639,
      "ten": 3640,
      "Ġahead": 3641,
      "Ġbent": 3642,
      "Ġmill": 3643,
      "Ġthunder": 3644,
      "iron": 3645,
      "ĠMandy": 3646,
      "aled": 3647,
      "Ġgoal": 3648,
      "Ġvine": 3649,
      "Ġafternoon": 3650,
      "Ġpainter": 3651,
      "Ġfireman": 3652,
      "Ġbandage": 3653,
      "Ġbathtub": 3654,
      "Ġspeed": 3655,
      "Ġtoilet": 3656,
      "Yay": 3657,
      "cream": 3658,
      "ocer": 3659,
      "ĠTr": 3660,
      "Ġshark": 3661,
      "Ġbeauty": 3662,
      "Ġjumps": 3663,
      "Ġgloomy": 3664,
      "ips": 3665,
      "ĠRemy": 3666,
      "Ġpattern": 3667,
      "hinocer": 3668,
      "Ġtwirled": 3669,
      "Ġjacket": 3670,
      "Ġbicycle": 3671,
      "Ġenthus": 3672,
      "hinoceros": 3673,
      "ron": 3674,
      "ses": 3675,
      "Ġten": 3676,
      "Ġcere": 3677,
      "Ġgym": 3678,
      "Ġnail": 3679,
      "Ġshine": 3680,
      "Ġseco": 3681,
      "ices": 3682,
      "Ġcreate": 3683,
      "Ġcourage": 3684,
      "Ġcrane": 3685,
      "Ġtrick": 3686,
      "Ġbutterflies": 3687,
      "Ġpretending": 3688,
      "Ġswinging": 3689,
      "Ġdriving": 3690,
      "Ġmonkeys": 3691,
      "ffee": 3692,
      "Ġrecogn": 3693,
      "Ġsecond": 3694,
      "..": 3695,
      "af": 3696,
      "hood": 3697,
      "Ġitself": 3698,
      "Ġshort": 3699,
      "Ġputting": 3700,
      "Ġcats": 3701,
      "Ġbrace": 3702,
      "Ġglove": 3703,
      "Ġuncle": 3704,
      "Ġpup": 3705,
      "Ġpersistent": 3706,
      "Ġdistant": 3707,
      "Ġgiggle": 3708,
      "ĠSophie": 3709,
      "iskers": 3710,
      "Ġbeetle": 3711,
      "Ġguitar": 3712,
      "cast": 3713,
      "ef": 3714,
      "te": 3715,
      "Ġhook": 3716,
      "Ġoy": 3717,
      "imi": 3718,
      "Ġink": 3719,
      "Ġrhinoceros": 3720,
      "Ġshel": 3721,
      "Ġshaking": 3722,
      "Ġhelpless": 3723,
      "ummer": 3724,
      "Ġfinds": 3725,
      "Ġtear": 3726,
      "Ġbadly": 3727,
      "Ġjokes": 3728,
      "aches": 3729,
      "Ġsticker": 3730,
      "Ġbarks": 3731,
      "Ġradio": 3732,
      "Ġwishes": 3733,
      "Ġvolcano": 3734,
      "Ġsize": 3735,
      "Ġdess": 3736,
      "erable": 3737,
      "ĠBet": 3738,
      "ĠMimi": 3739,
      "Ġnote": 3740,
      "ills": 3741,
      "urb": 3742,
      "ĠWhere": 3743,
      "Ġtap": 3744,
      "Ġener": 3745,
      "ĠcouldnÃ¢": 3746,
      "Ġcompl": 3747,
      "Ġquite": 3748,
      "Ġtrap": 3749,
      "Ġlions": 3750,
      "Ġcupboard": 3751,
      "Ġtreasures": 3752,
      "Ġpasta": 3753,
      "Ġdisturb": 3754,
      "Ġletters": 3755,
      "gen": 3756,
      "year": 3757,
      "Ġsink": 3758,
      "Ġfort": 3759,
      "Ġshut": 3760,
      "Ġrose": 3761,
      "Ġgrapes": 3762,
      "Ġdishes": 3763,
      "Ġsandcast": 3764,
      "Ġtricks": 3765,
      "Ġpopular": 3766,
      "Ġfearful": 3767,
      "Ġriding": 3768,
      "Ġlibrary": 3769,
      "Ġmiserable": 3770,
      "shed": 3771,
      "uth": 3772,
      "ckey": 3773,
      "seum": 3774,
      "Ġscold": 3775,
      "Ġroared": 3776,
      "Ġcoffee": 3777,
      "Ġsadly": 3778,
      "Ġlaund": 3779,
      "Ġholes": 3780,
      "Ġhockey": 3781,
      "Ġraven": 3782,
      "Ġappl": 3783,
      "Ġmixer": 3784,
      "Ġtroubled": 3785,
      "ailable": 3786,
      "Ġsilver": 3787,
      "ĠBrownie": 3788,
      "Ġdessert": 3789,
      "Ġbet": 3790,
      "ites": 3791,
      "Ġpad": 3792,
      "Ġpine": 3793,
      "Ġpage": 3794,
      "Ġgira": 3795,
      "Ġrag": 3796,
      "Ġshade": 3797,
      "Ġkay": 3798,
      "Ġpeek": 3799,
      "ĠGive": 3800,
      "Ġclimbing": 3801,
      "Ġzeb": 3802,
      "Ġpoint": 3803,
      "ggy": 3804,
      "Ġcups": 3805,
      "Ġavailable": 3806,
      "Ġcompetitive": 3807,
      "Ġzebra": 3808,
      "ci": 3809,
      "ubby": 3810,
      "Ġhut": 3811,
      "anic": 3812,
      "Ġins": 3813,
      "Ġstared": 3814,
      "Ġjet": 3815,
      "ĠWould": 3816,
      "Ġmuseum": 3817,
      "Ġchance": 3818,
      "Ġchubby": 3819,
      "Ġstrugg": 3820,
      "Ġmessage": 3821,
      "Ġvisited": 3822,
      "ĠBefore": 3823,
      "Ġcereal": 3824,
      "Ġlaundry": 3825,
      "Bye": 3826,
      "Ġfurt": 3827,
      "arry": 3828,
      "chanic": 3829,
      "Ġreef": 3830,
      "Ġboots": 3831,
      "Ġmechanic": 3832,
      "ucked": 3833,
      "Ġanyway": 3834,
      "uct": 3835,
      "Ġnowhere": 3836,
      "Ġdeaf": 3837,
      "Ġrubb": 3838,
      "Ġshopkeeper": 3839,
      "Ġgrabs": 3840,
      "Ġadmire": 3841,
      "Ġsupport": 3842,
      "Ġsteps": 3843,
      "Ġmotorcycle": 3844,
      "Re": 3845,
      "lb": 3846,
      "Ġiron": 3847,
      "Ġaw": 3848,
      "Ġsummer": 3849,
      "Ġwife": 3850,
      "Ġfan": 3851,
      "Ġdive": 3852,
      "Ġmild": 3853,
      "stairs": 3854,
      "Ġeither": 3855,
      "Ġspell": 3856,
      "Ġpeach": 3857,
      "Ġbulb": 3858,
      "Ġchecked": 3859,
      "Ġappre": 3860,
      "Ġpapers": 3861,
      "Ġpushes": 3862,
      "ĠWhiskers": 3863,
      "Ġbounced": 3864,
      "Ġcolours": 3865,
      "Ġfrowned": 3866,
      "Ġsweater": 3867,
      "ibb": 3868,
      "zzy": 3869,
      "elery": 3870,
      "Ġshadow": 3871,
      "Ġdisag": 3872,
      "Ġsoftly": 3873,
      "Ġgifted": 3874,
      "Ġspinning": 3875,
      "Ġstretch": 3876,
      "Ġspeak": 3877,
      "Ġmodest": 3878,
      "Ġfurther": 3879,
      "Ġappreci": 3880,
      "Because": 3881,
      "ccol": 3882,
      "Ġpun": 3883,
      "ooped": 3884,
      "Ġstack": 3885,
      "Ġbackpack": 3886,
      "Ġclapping": 3887,
      "Ġtruth": 3888,
      "ĠEverything": 3889,
      "Ġcheek": 3890,
      "Ġgiven": 3891,
      "Ġorganize": 3892,
      "ccoli": 3893,
      "ceed": 3894,
      "Ġreve": 3895,
      "Ġhanded": 3896,
      "Ġorder": 3897,
      "Ġbubble": 3898,
      "sely": 3899,
      "Ġart": 3900,
      "Ġdancer": 3901,
      "Ġbreaks": 3902,
      "Ġlands": 3903,
      "Ġchickens": 3904,
      "Ġbracelet": 3905,
      "eath": 3906,
      "Ġsent": 3907,
      "Ġwool": 3908,
      "Ġdough": 3909,
      "Ġmen": 3910,
      "Ġsaus": 3911,
      "Ġslipp": 3912,
      "Ġteleph": 3913,
      "Ġhoping": 3914,
      "Ġcountry": 3915,
      "Ġjourn": 3916,
      "Ġtelephone": 3917,
      "night": 3918,
      "erc": 3919,
      "orable": 3920,
      "Ġhappier": 3921,
      "illie": 3922,
      "play": 3923,
      "Ġtrack": 3924,
      "Ġpushing": 3925,
      "Ġwallet": 3926,
      "Ġcartoon": 3927,
      "Ġsalt": 3928,
      "Ġsneak": 3929,
      "Ġrepair": 3930,
      "oot": 3931,
      "Ġcurt": 3932,
      "Ġol": 3933,
      "arnt": 3934,
      "irit": 3935,
      "Ġhadn": 3936,
      "Ġlearnt": 3937,
      "Ġswamp": 3938,
      "Ġclosely": 3939,
      "ĠRu": 3940,
      "Ġdisplay": 3941,
      "Ġstuffed": 3942,
      "Ġdrops": 3943,
      "Ġrescue": 3944,
      "Ġcomplete": 3945,
      "Ġjournal": 3946,
      "Ġcurtain": 3947,
      "ser": 3948,
      "ĠHelp": 3949,
      "stic": 3950,
      "ĠJul": 3951,
      "Ġstarting": 3952,
      "Ġopera": 3953,
      "Ġquar": 3954,
      "Ġadorable": 3955,
      "ĠPaul": 3956,
      "Ġbroccoli": 3957,
      "Ġdrawings": 3958,
      "Ġtripped": 3959,
      "Ġprov": 3960,
      "Ġincl": 3961,
      "Ġsucceed": 3962,
      "Ġtemp": 3963,
      "Ġtorn": 3964,
      "inking": 3965,
      "Ġpony": 3966,
      "any": 3967,
      "ĠBunny": 3968,
      "ĠBaby": 3969,
      "Ġexerc": 3970,
      "iastic": 3971,
      "Ġshouldn": 3972,
      "Ġrestless": 3973,
      "ĠKat": 3974,
      "Ġmistakes": 3975,
      "Ġpirates": 3976,
      "Ġenthusiastic": 3977,
      "Ġkayak": 3978,
      "cut": 3979,
      "iest": 3980,
      "loe": 3981,
      "heart": 3982,
      "Ġlid": 3983,
      "Ġcelery": 3984,
      "Ġpor": 3985,
      "ison": 3986,
      "Ġweep": 3987,
      "ents": 3988,
      "Ġspirit": 3989,
      "Ġraft": 3990,
      "Ġpressed": 3991,
      "Ġrolling": 3992,
      "ĠChloe": 3993,
      "Ġpaws": 3994,
      "Ġlemonade": 3995,
      "Ġfilthy": 3996,
      "Ġpowder": 3997,
      "Ġbikes": 3998,
      "Ġfive": 3999,
      "Ġgolf": 4000,
      "Ġallig": 4001,
      "Ġmeat": 4002,
      "Ġmeas": 4003,
      "Ġmuff": 4004,
      "Ġended": 4005,
      "Ġairport": 4006,
      "Ġthrowing": 4007,
      "ĠBuzz": 4008,
      "was": 4009,
      "inarian": 4010,
      "Ġlang": 4011,
      "Ġdust": 4012,
      "Ġpair": 4013,
      "arm": 4014,
      "ĠBill": 4015,
      "Ġnoteb": 4016,
      "Ġreward": 4017,
      "Ġknot": 4018,
      "Ġknob": 4019,
      "Ġsomewhere": 4020,
      "aud": 4021,
      "astic": 4022,
      "Ġsandbox": 4023,
      "Ġfalling": 4024,
      "Ġsplit": 4025,
      "Ġpolish": 4026,
      "eterinarian": 4027,
      "Ġexper": 4028,
      "Ġhuman": 4029,
      "Ġdishwas": 4030,
      "Ġfishing": 4031,
      "Ġlangu": 4032,
      "Ġnotebook": 4033,
      "Ġdishwasher": 4034,
      "Ġtheater": 4035,
      "Ġwags": 4036,
      "Ġlend": 4037,
      "Ġcomet": 4038,
      "kelet": 4039,
      "Ġonion": 4040,
      "Ġweather": 4041,
      "Ġkitty": 4042,
      "Ġseal": 4043,
      "Ġveterinarian": 4044,
      "ĠdonÃ¢": 4045,
      "ĠPat": 4046,
      "Ġcryst": 4047,
      "Ġraining": 4048,
      "ĠInst": 4049,
      "Ġfrogs": 4050,
      "Ġsmells": 4051,
      "Ġmarched": 4052,
      "Ġdiary": 4053,
      "Ġsupply": 4054,
      "Ġbalanc": 4055,
      "Ġcooked": 4056,
      "par": 4057,
      "ĠTed": 4058,
      "Ġthread": 4059,
      "una": 4060,
      "ĠMillie": 4061,
      "Ġsepar": 4062,
      "nna": 4063,
      "Ġdiscu": 4064,
      "Ġcounter": 4065,
      "ctory": 4066,
      "Ġobser": 4067,
      "Ġcrib": 4068,
      "Ġleaned": 4069,
      "Ġfuel": 4070,
      "Ġavoc": 4071,
      "Ġenergy": 4072,
      "Ġapplaud": 4073,
      "bor": 4074,
      "ĠSee": 4075,
      "Ġhall": 4076,
      "Ġfactory": 4077,
      "Ġswung": 4078,
      "bbie": 4079,
      "Ġsort": 4080,
      "Ġunh": 4081,
      "Ġsquash": 4082,
      "Ġthrows": 4083,
      "Ġshrimp": 4084,
      "Ġpinch": 4085,
      "Ġinsist": 4086,
      "If": 4087,
      "aked": 4088,
      "ges": 4089,
      "gie": 4090,
      "Ġskelet": 4091,
      "Ġfle": 4092,
      "Ġluck": 4093,
      "une": 4094,
      "Ġchirp": 4095
    },
    "merges": [
      [
        "h",
        "e"
      ],
      [
        "Ġ",
        "t"
      ],
      [
        "Ġ",
        "a"
      ],
      [
        "Ġ",
        "s"
      ],
      [
        "n",
        "d"
      ],
      [
        "Ġ",
        "w"
      ],
      [
        "Ġt",
        "he"
      ],
      [
        "e",
        "d"
      ],
      [
        "Ġa",
        "nd"
      ],
      [
        "Ġt",
        "o"
      ],
      [
        "Ġ",
        "b"
      ],
      [
        "i",
        "n"
      ],
      [
        "Ġ",
        "h"
      ],
      [
        "Ġw",
        "a"
      ],
      [
        "r",
        "e"
      ],
      [
        "Ġ",
        "f"
      ],
      [
        "o",
        "u"
      ],
      [
        "i",
        "t"
      ],
      [
        "Ġ",
        "T"
      ],
      [
        "Ġ",
        "l"
      ],
      [
        "Ġ",
        "c"
      ],
      [
        "Ġ",
        "d"
      ],
      [
        "Ġ",
        "he"
      ],
      [
        "e",
        "r"
      ],
      [
        "Ġ",
        "m"
      ],
      [
        "Ġ",
        "p"
      ],
      [
        "Ġwa",
        "s"
      ],
      [
        "o",
        "m"
      ],
      [
        "Ġ",
        "o"
      ],
      [
        "a",
        "y"
      ],
      [
        "ĠT",
        "he"
      ],
      [
        "i",
        "s"
      ],
      [
        "a",
        "r"
      ],
      [
        "i",
        "l"
      ],
      [
        "in",
        "g"
      ],
      [
        "Ġ",
        "g"
      ],
      [
        "i",
        "d"
      ],
      [
        "Ġ",
        "S"
      ],
      [
        "a",
        "t"
      ],
      [
        "e",
        "n"
      ],
      [
        "Ġ",
        "n"
      ],
      [
        "Ġs",
        "a"
      ],
      [
        "Ġh",
        "a"
      ],
      [
        "a",
        "n"
      ],
      [
        "i",
        "m"
      ],
      [
        "o",
        "r"
      ],
      [
        "o",
        "n"
      ],
      [
        "Ġ",
        "it"
      ],
      [
        "Ġ",
        "H"
      ],
      [
        "Ġt",
        "h"
      ],
      [
        "l",
        "l"
      ],
      [
        "Ġ",
        "\""
      ],
      [
        "l",
        "e"
      ],
      [
        "Ġhe",
        "r"
      ],
      [
        "ĠS",
        "he"
      ],
      [
        "e",
        "t"
      ],
      [
        "o",
        "t"
      ],
      [
        "i",
        "r"
      ],
      [
        "ĠH",
        "e"
      ],
      [
        "ĠThe",
        "y"
      ],
      [
        "e",
        "nd"
      ],
      [
        "e",
        "s"
      ],
      [
        "Ġ",
        "in"
      ],
      [
        "o",
        "w"
      ],
      [
        "u",
        "t"
      ],
      [
        "Ġ",
        "L"
      ],
      [
        "v",
        "er"
      ],
      [
        "c",
        "k"
      ],
      [
        "il",
        "y"
      ],
      [
        "Ġ",
        "u"
      ],
      [
        "Ġ",
        "y"
      ],
      [
        "l",
        "d"
      ],
      [
        "o",
        "o"
      ],
      [
        "Ġsa",
        "id"
      ],
      [
        "i",
        "g"
      ],
      [
        "e",
        "x"
      ],
      [
        "Ġ",
        "r"
      ],
      [
        "a",
        "m"
      ],
      [
        "Ġ",
        "I"
      ],
      [
        "Ġb",
        "e"
      ],
      [
        "Ġs",
        "t"
      ],
      [
        "it",
        "h"
      ],
      [
        "ĠL",
        "ily"
      ],
      [
        "k",
        "e"
      ],
      [
        "c",
        "e"
      ],
      [
        "p",
        "p"
      ],
      [
        "Ġw",
        "ith"
      ],
      [
        "v",
        "e"
      ],
      [
        "Ġs",
        "he"
      ],
      [
        "Ġ",
        "O"
      ],
      [
        "ĠO",
        "n"
      ],
      [
        "Ġo",
        "n"
      ],
      [
        "Ġy",
        "ou"
      ],
      [
        "r",
        "i"
      ],
      [
        "k",
        "ed"
      ],
      [
        "Ġp",
        "l"
      ],
      [
        "Ġ",
        "B"
      ],
      [
        "f",
        "t"
      ],
      [
        "Ġh",
        "is"
      ],
      [
        "Ġo",
        "f"
      ],
      [
        "n",
        "t"
      ],
      [
        "Ġs",
        "o"
      ],
      [
        "a",
        "d"
      ],
      [
        "Ġd",
        "ay"
      ],
      [
        "ver",
        "y"
      ],
      [
        "Ġth",
        "at"
      ],
      [
        "Ġpl",
        "ay"
      ],
      [
        "Ġu",
        "p"
      ],
      [
        "e",
        "l"
      ],
      [
        "Ġm",
        "om"
      ],
      [
        "Ġha",
        "d"
      ],
      [
        "Ġthe",
        "y"
      ],
      [
        "ex",
        "t"
      ],
      [
        "s",
        "t"
      ],
      [
        "Ġw",
        "e"
      ],
      [
        "Ġf",
        "or"
      ],
      [
        "Ġ",
        "e"
      ],
      [
        "u",
        "n"
      ],
      [
        "m",
        "y"
      ],
      [
        "Ġ",
        "M"
      ],
      [
        "'",
        "s"
      ],
      [
        "ou",
        "ld"
      ],
      [
        "Ġl",
        "i"
      ],
      [
        "o",
        "ft"
      ],
      [
        "<",
        "|"
      ],
      [
        "|",
        ">"
      ],
      [
        "Ġ",
        "<|"
      ],
      [
        "end",
        "oft"
      ],
      [
        "endoft",
        "ext"
      ],
      [
        "Ġha",
        "pp"
      ],
      [
        "en",
        "t"
      ],
      [
        "c",
        "h"
      ],
      [
        "it",
        "t"
      ],
      [
        "Ġwa",
        "nt"
      ],
      [
        "he",
        "r"
      ],
      [
        "Ġs",
        "h"
      ],
      [
        "ou",
        "t"
      ],
      [
        "Ġd",
        "o"
      ],
      [
        "Ġn",
        "ot"
      ],
      [
        "om",
        "e"
      ],
      [
        "a",
        "ll"
      ],
      [
        "s",
        "e"
      ],
      [
        "Ġ",
        "very"
      ],
      [
        "ou",
        "nd"
      ],
      [
        "l",
        "y"
      ],
      [
        "im",
        "e"
      ],
      [
        "itt",
        "le"
      ],
      [
        "Ġ",
        "k"
      ],
      [
        "Ġt",
        "ime"
      ],
      [
        "Ġw",
        "h"
      ],
      [
        "Ġl",
        "ittle"
      ],
      [
        "Ġthe",
        "re"
      ],
      [
        "Ġ",
        "is"
      ],
      [
        "Ġb",
        "ig"
      ],
      [
        "h",
        "t"
      ],
      [
        "Ġhapp",
        "y"
      ],
      [
        "Ġ",
        "A"
      ],
      [
        "a",
        "l"
      ],
      [
        "Ġ",
        "re"
      ],
      [
        "ĠI",
        "t"
      ],
      [
        "Ġs",
        "m"
      ],
      [
        "ri",
        "end"
      ],
      [
        "Ġf",
        "riend"
      ],
      [
        "Ġsa",
        "w"
      ],
      [
        "Ġb",
        "ut"
      ],
      [
        ".",
        "\""
      ],
      [
        "r",
        "a"
      ],
      [
        "ĠT",
        "im"
      ],
      [
        "Ġa",
        "n"
      ],
      [
        "Ġa",
        "s"
      ],
      [
        "r",
        "y"
      ],
      [
        "Ġn",
        "e"
      ],
      [
        "a",
        "ck"
      ],
      [
        "ĠOn",
        "e"
      ],
      [
        "id",
        "e"
      ],
      [
        "a",
        "ke"
      ],
      [
        "v",
        "ed"
      ],
      [
        "'",
        "t"
      ],
      [
        "!",
        "\""
      ],
      [
        "u",
        "g"
      ],
      [
        "Ġl",
        "o"
      ],
      [
        "Ġl",
        "oo"
      ],
      [
        "ĠOn",
        "ce"
      ],
      [
        "Ġwe",
        "re"
      ],
      [
        "Ġs",
        "e"
      ],
      [
        "o",
        "re"
      ],
      [
        "Ġb",
        "o"
      ],
      [
        "Ġto",
        "o"
      ],
      [
        "Ġ",
        "J"
      ],
      [
        "Ġh",
        "im"
      ],
      [
        "Ġg",
        "o"
      ],
      [
        "Ġa",
        "re"
      ],
      [
        "e",
        "c"
      ],
      [
        "Ġup",
        "on"
      ],
      [
        "il",
        "l"
      ],
      [
        "ir",
        "l"
      ],
      [
        "Ġwant",
        "ed"
      ],
      [
        "Ġthe",
        "m"
      ],
      [
        "ar",
        "d"
      ],
      [
        "ĠB",
        "en"
      ],
      [
        "Ġ",
        "j"
      ],
      [
        "Ġg",
        "irl"
      ],
      [
        "ĠT",
        "om"
      ],
      [
        "Ġ",
        "out"
      ],
      [
        "Ġthe",
        "ir"
      ],
      [
        "Ġa",
        "t"
      ],
      [
        "i",
        "nd"
      ],
      [
        "w",
        "ay"
      ],
      [
        "u",
        "r"
      ],
      [
        "f",
        "u"
      ],
      [
        "Ġd",
        "id"
      ],
      [
        "he",
        "n"
      ],
      [
        "Ġs",
        "p"
      ],
      [
        "Ġsm",
        "il"
      ],
      [
        "Ġc",
        "ould"
      ],
      [
        "Ġha",
        "ve"
      ],
      [
        "a",
        "in"
      ],
      [
        "Ġw",
        "ent"
      ],
      [
        "he",
        "d"
      ],
      [
        "Ġn",
        "am"
      ],
      [
        "t",
        "er"
      ],
      [
        "Ġc",
        "an"
      ],
      [
        "ar",
        "t"
      ],
      [
        "r",
        "om"
      ],
      [
        "l",
        "p"
      ],
      [
        "i",
        "c"
      ],
      [
        "Ġ",
        "W"
      ],
      [
        "r",
        "ound"
      ],
      [
        "Ġfriend",
        "s"
      ],
      [
        "?",
        "\""
      ],
      [
        "Ġ",
        "ex"
      ],
      [
        "Ġhe",
        "lp"
      ],
      [
        "oo",
        "d"
      ],
      [
        "fu",
        "l"
      ],
      [
        "Ġk",
        "n"
      ],
      [
        "ĠB",
        "ut"
      ],
      [
        "Ġa",
        "ll"
      ],
      [
        "h",
        "ing"
      ],
      [
        "ĠTim",
        "my"
      ],
      [
        "ig",
        "ht"
      ],
      [
        "u",
        "m"
      ],
      [
        "ar",
        "k"
      ],
      [
        "Ġf",
        "un"
      ],
      [
        "on",
        "e"
      ],
      [
        "Ġs",
        "ay"
      ],
      [
        "Ġb",
        "ack"
      ],
      [
        "Y",
        "ou"
      ],
      [
        "Ġnam",
        "ed"
      ],
      [
        "a",
        "re"
      ],
      [
        "Ġc",
        "l"
      ],
      [
        "Ġn",
        "o"
      ],
      [
        "Ġl",
        "e"
      ],
      [
        "Ġlo",
        "ved"
      ],
      [
        "o",
        "p"
      ],
      [
        "el",
        "t"
      ],
      [
        "ou",
        "g"
      ],
      [
        "Ġs",
        "c"
      ],
      [
        "Ġf",
        "elt"
      ],
      [
        "Ġto",
        "y"
      ],
      [
        "Ġsmil",
        "ed"
      ],
      [
        "Ġa",
        "l"
      ],
      [
        "Ġas",
        "ked"
      ],
      [
        "i",
        "ck"
      ],
      [
        "s",
        "ide"
      ],
      [
        "Ġli",
        "ke"
      ],
      [
        "Ġf",
        "e"
      ],
      [
        "Ġloo",
        "ked"
      ],
      [
        "Ġse",
        "e"
      ],
      [
        "Ġm",
        "an"
      ],
      [
        "am",
        "e"
      ],
      [
        "Ġb",
        "ir"
      ],
      [
        "Ġr",
        "o"
      ],
      [
        "g",
        "et"
      ],
      [
        "Ġm",
        "e"
      ],
      [
        "Ġa",
        "round"
      ],
      [
        "Ġs",
        "ome"
      ],
      [
        "u",
        "re"
      ],
      [
        "Ġb",
        "r"
      ],
      [
        "Ġbo",
        "y"
      ],
      [
        "om",
        "et"
      ],
      [
        "Ġbir",
        "d"
      ],
      [
        "on",
        "g"
      ],
      [
        "i",
        "ce"
      ],
      [
        "Ġw",
        "ould"
      ],
      [
        "a",
        "s"
      ],
      [
        "Ġst",
        "art"
      ],
      [
        "d",
        "d"
      ],
      [
        "Ġw",
        "or"
      ],
      [
        "Ġa",
        "g"
      ],
      [
        ",",
        "\""
      ],
      [
        "Ġt",
        "re"
      ],
      [
        "get",
        "her"
      ],
      [
        "ing",
        "s"
      ],
      [
        "ad",
        "e"
      ],
      [
        "a",
        "g"
      ],
      [
        "Ġs",
        "omet"
      ],
      [
        "Ġm",
        "ake"
      ],
      [
        "Ġf",
        "a"
      ],
      [
        "ow",
        "n"
      ],
      [
        "Ġ",
        "You"
      ],
      [
        "Ġwh",
        "at"
      ],
      [
        "k",
        "ing"
      ],
      [
        "Ġa",
        "way"
      ],
      [
        "Ġto",
        "gether"
      ],
      [
        "Ġsay",
        "s"
      ],
      [
        "Ġr",
        "an"
      ],
      [
        "ou",
        "d"
      ],
      [
        "Ã",
        "¢"
      ],
      [
        "â",
        "Ĥ"
      ],
      [
        "âĤ",
        "¬"
      ],
      [
        "Ġstart",
        "ed"
      ],
      [
        "Ġp",
        "ark"
      ],
      [
        "ĠM",
        "om"
      ],
      [
        "ar",
        "ed"
      ],
      [
        "Ġm",
        "ade"
      ],
      [
        "Ġc",
        "o"
      ],
      [
        "i",
        "e"
      ],
      [
        "Ġsa",
        "d"
      ],
      [
        "Ġp",
        "ut"
      ],
      [
        "Ġo",
        "t"
      ],
      [
        "Ġc",
        "ar"
      ],
      [
        "Ġne",
        "w"
      ],
      [
        "Ġsomet",
        "hing"
      ],
      [
        "it",
        "ed"
      ],
      [
        "Ġ",
        "F"
      ],
      [
        "Ġot",
        "her"
      ],
      [
        "Ġp",
        "r"
      ],
      [
        "e",
        "ll"
      ],
      [
        "Ġf",
        "rom"
      ],
      [
        "Ġag",
        "ain"
      ],
      [
        "b",
        "le"
      ],
      [
        "oo",
        "k"
      ],
      [
        "Ġf",
        "l"
      ],
      [
        "Ġh",
        "ug"
      ],
      [
        "Ġg",
        "ood"
      ],
      [
        "Ġh",
        "ome"
      ],
      [
        "Ġm",
        "u"
      ],
      [
        "Ġex",
        "c"
      ],
      [
        "Ġl",
        "a"
      ],
      [
        "Ġw",
        "hen"
      ],
      [
        "ri",
        "ed"
      ],
      [
        "i",
        "f"
      ],
      [
        "Ġf",
        "ound"
      ],
      [
        "Ġwh",
        "o"
      ],
      [
        "a",
        "ch"
      ],
      [
        "Ġ",
        "E"
      ],
      [
        "e",
        "p"
      ],
      [
        "s",
        "s"
      ],
      [
        "es",
        "t"
      ],
      [
        "h",
        "at"
      ],
      [
        "pp",
        "ed"
      ],
      [
        "oug",
        "ht"
      ],
      [
        "Ġplay",
        "ing"
      ],
      [
        "u",
        "e"
      ],
      [
        "Ġthe",
        "n"
      ],
      [
        "Ġs",
        "w"
      ],
      [
        "Ġc",
        "h"
      ],
      [
        "Ġd",
        "ec"
      ],
      [
        "Ġwa",
        "l"
      ],
      [
        "Ġg",
        "et"
      ],
      [
        "ou",
        "s"
      ],
      [
        "u",
        "ck"
      ],
      [
        "p",
        "l"
      ],
      [
        "Ġth",
        "ings"
      ],
      [
        "Ġb",
        "l"
      ],
      [
        "Ġ",
        "D"
      ],
      [
        "all",
        "y"
      ],
      [
        "Ġg",
        "ot"
      ],
      [
        "r",
        "o"
      ],
      [
        "n",
        "n"
      ],
      [
        "Ġli",
        "ked"
      ],
      [
        "a",
        "ve"
      ],
      [
        "Ġdo",
        "g"
      ],
      [
        "Ġexc",
        "ited"
      ],
      [
        "Ġc",
        "ame"
      ],
      [
        "Ġyou",
        "r"
      ],
      [
        "Ġe",
        "very"
      ],
      [
        "a",
        "x"
      ],
      [
        "Ġdec",
        "id"
      ],
      [
        "Ġbe",
        "c"
      ],
      [
        "Ġd",
        "own"
      ],
      [
        "Ġdecid",
        "ed"
      ],
      [
        "Ġ",
        "v"
      ],
      [
        "ĠS",
        "am"
      ],
      [
        "Ġc",
        "are"
      ],
      [
        "Ġf",
        "ind"
      ],
      [
        "Ġd",
        "ad"
      ],
      [
        "ou",
        "se"
      ],
      [
        "n",
        "y"
      ],
      [
        "u",
        "st"
      ],
      [
        "ar",
        "a"
      ],
      [
        "is",
        "t"
      ],
      [
        "Ġon",
        "e"
      ],
      [
        "Ġfe",
        "el"
      ],
      [
        "Ġsc",
        "ared"
      ],
      [
        "ĠA",
        "nn"
      ],
      [
        "Ġa",
        "b"
      ],
      [
        "Ġth",
        "an"
      ],
      [
        "Ġt",
        "a"
      ],
      [
        "ĠM",
        "ax"
      ],
      [
        "Ġm",
        "y"
      ],
      [
        "Ġtre",
        "e"
      ],
      [
        "Ġw",
        "ill"
      ],
      [
        "u",
        "s"
      ],
      [
        "u",
        "dd"
      ],
      [
        "q",
        "u"
      ],
      [
        "Ġtoy",
        "s"
      ],
      [
        "ar",
        "n"
      ],
      [
        "way",
        "s"
      ],
      [
        "er",
        "s"
      ],
      [
        "ou",
        "r"
      ],
      [
        "Ġdid",
        "n"
      ],
      [
        "Ġtoo",
        "k"
      ],
      [
        "Ġg",
        "ra"
      ],
      [
        "Ġb",
        "all"
      ],
      [
        "Ġal",
        "ways"
      ],
      [
        "Ġab",
        "out"
      ],
      [
        "Ġp",
        "o"
      ],
      [
        "ĠS",
        "ara"
      ],
      [
        "es",
        "s"
      ],
      [
        "nd",
        "er"
      ],
      [
        "Ġloo",
        "k"
      ],
      [
        "Ġmom",
        "my"
      ],
      [
        "Ġth",
        "ought"
      ],
      [
        "ĠAnn",
        "a"
      ],
      [
        "it",
        "e"
      ],
      [
        "an",
        "t"
      ],
      [
        "f",
        "e"
      ],
      [
        "Ġl",
        "ot"
      ],
      [
        "Ġkn",
        "e"
      ],
      [
        "Ġ",
        "ke"
      ],
      [
        "Ġout",
        "side"
      ],
      [
        "ĠS",
        "o"
      ],
      [
        "is",
        "e"
      ],
      [
        "Ġm",
        "ore"
      ],
      [
        "a",
        "p"
      ],
      [
        "re",
        "t"
      ],
      [
        "g",
        "ed"
      ],
      [
        "Ġle",
        "arn"
      ],
      [
        "Ġkn",
        "ow"
      ],
      [
        "Ġh",
        "o"
      ],
      [
        "c",
        "hed"
      ],
      [
        "en",
        "ed"
      ],
      [
        "Ġin",
        "t"
      ],
      [
        "b",
        "b"
      ],
      [
        "Ġla",
        "ug"
      ],
      [
        "ĠW",
        "hen"
      ],
      [
        "Ġc",
        "at"
      ],
      [
        "Ġs",
        "or"
      ],
      [
        "Ġo",
        "ld"
      ],
      [
        "Ġt",
        "ake"
      ],
      [
        "ec",
        "i"
      ],
      [
        "ĠH",
        "er"
      ],
      [
        "i",
        "a"
      ],
      [
        "ft",
        "er"
      ],
      [
        "i",
        "ve"
      ],
      [
        "Ġan",
        "y"
      ],
      [
        "m",
        "a"
      ],
      [
        "Ġp",
        "e"
      ],
      [
        "ĠJ",
        "o"
      ],
      [
        "Ġkne",
        "w"
      ],
      [
        "Ġt",
        "r"
      ],
      [
        "Ġh",
        "ow"
      ],
      [
        "udd",
        "en"
      ],
      [
        "eci",
        "al"
      ],
      [
        "Ġsp",
        "ecial"
      ],
      [
        "Ġs",
        "l"
      ],
      [
        "a",
        "u"
      ],
      [
        "Ġsh",
        "ow"
      ],
      [
        "Ġsor",
        "ry"
      ],
      [
        "Ġh",
        "ouse"
      ],
      [
        "udden",
        "ly"
      ],
      [
        "Ġmu",
        "ch"
      ],
      [
        "Ġr",
        "un"
      ],
      [
        "a",
        "nd"
      ],
      [
        "is",
        "h"
      ],
      [
        "Ġs",
        "un"
      ],
      [
        "an",
        "k"
      ],
      [
        "ĠJ",
        "ack"
      ],
      [
        "Ġto",
        "ld"
      ],
      [
        "v",
        "en"
      ],
      [
        "Ġt",
        "w"
      ],
      [
        "Ġo",
        "p"
      ],
      [
        "Ġha",
        "nd"
      ],
      [
        "Ġo",
        "r"
      ],
      [
        "Ġm",
        "o"
      ],
      [
        "Ġs",
        "k"
      ],
      [
        "Ġint",
        "o"
      ],
      [
        "Ġplay",
        "ed"
      ],
      [
        "in",
        "k"
      ],
      [
        "Ġwa",
        "ter"
      ],
      [
        "Ġg",
        "ave"
      ],
      [
        "t",
        "y"
      ],
      [
        "Ġt",
        "ried"
      ],
      [
        "Ġcl",
        "o"
      ],
      [
        "Ġe",
        "at"
      ],
      [
        "ĠE",
        "very"
      ],
      [
        "Ġpr",
        "oud"
      ],
      [
        "ot",
        "her"
      ],
      [
        "Ġin",
        "side"
      ],
      [
        "at",
        "e"
      ],
      [
        "ĠW",
        "e"
      ],
      [
        "Ġ",
        "if"
      ],
      [
        "Ġ",
        "en"
      ],
      [
        "Ġro",
        "om"
      ],
      [
        "au",
        "se"
      ],
      [
        "um",
        "p"
      ],
      [
        "Ġo",
        "ver"
      ],
      [
        "Ġcould",
        "n"
      ],
      [
        "d",
        "y"
      ],
      [
        "ĠM",
        "ia"
      ],
      [
        "Ġne",
        "ver"
      ],
      [
        "o",
        "b"
      ],
      [
        "g",
        "e"
      ],
      [
        "et",
        "ter"
      ],
      [
        "Ġp",
        "ick"
      ],
      [
        "Ġg",
        "re"
      ],
      [
        "ĠF",
        "rom"
      ],
      [
        "he",
        "re"
      ],
      [
        "Ġhe",
        "ard"
      ],
      [
        "a",
        "k"
      ],
      [
        "i",
        "on"
      ],
      [
        "Ġhug",
        "ged"
      ],
      [
        "Ġst",
        "r"
      ],
      [
        "ĠS",
        "uddenly"
      ],
      [
        "Ġp",
        "ret"
      ],
      [
        "Ġbo",
        "x"
      ],
      [
        "Ġex",
        "pl"
      ],
      [
        "Ġne",
        "ed"
      ],
      [
        "Ġe",
        "ach"
      ],
      [
        "Ġwa",
        "t"
      ],
      [
        "a",
        "ce"
      ],
      [
        "Ġth",
        "is"
      ],
      [
        "Ġbec",
        "ause"
      ],
      [
        "Ġb",
        "u"
      ],
      [
        "Ġj",
        "ust"
      ],
      [
        "Ġman",
        "y"
      ],
      [
        "ĠH",
        "is"
      ],
      [
        "ot",
        "h"
      ],
      [
        "il",
        "e"
      ],
      [
        "Ġf",
        "o"
      ],
      [
        "Ġsm",
        "all"
      ],
      [
        "Ġn",
        "ice"
      ],
      [
        "ĠA",
        "nd"
      ],
      [
        "ĠThe",
        "n"
      ],
      [
        "Ġl",
        "ong"
      ],
      [
        "Ġc",
        "om"
      ],
      [
        "Ġ",
        "qu"
      ],
      [
        "'",
        "m"
      ],
      [
        "s",
        "ed"
      ],
      [
        "ur",
        "t"
      ],
      [
        "i",
        "z"
      ],
      [
        "g",
        "ry"
      ],
      [
        "im",
        "al"
      ],
      [
        "Ġan",
        "imal"
      ],
      [
        "u",
        "c"
      ],
      [
        "Ġ",
        "C"
      ],
      [
        "v",
        "ing"
      ],
      [
        "b",
        "y"
      ],
      [
        "Ġof",
        "f"
      ],
      [
        "in",
        "e"
      ],
      [
        "Ġlearn",
        "ed"
      ],
      [
        "Ġt",
        "ry"
      ],
      [
        "Ġbe",
        "ar"
      ],
      [
        "Ġlo",
        "ve"
      ],
      [
        "Ġs",
        "n"
      ],
      [
        "oug",
        "h"
      ],
      [
        "Ġb",
        "etter"
      ],
      [
        "il",
        "d"
      ],
      [
        "or",
        "t"
      ],
      [
        "s",
        "el"
      ],
      [
        "Ġfl",
        "ow"
      ],
      [
        "Ġu",
        "nt"
      ],
      [
        "Y",
        "es"
      ],
      [
        "Ġc",
        "all"
      ],
      [
        "Ġunt",
        "il"
      ],
      [
        "e",
        "m"
      ],
      [
        "Ġk",
        "ind"
      ],
      [
        "ar",
        "s"
      ],
      [
        "Ġc",
        "le"
      ],
      [
        "Ġb",
        "est"
      ],
      [
        "Ġd",
        "on"
      ],
      [
        "ur",
        "n"
      ],
      [
        "Ġ",
        "end"
      ],
      [
        "u",
        "ll"
      ],
      [
        "Ġd",
        "re"
      ],
      [
        "Ġf",
        "i"
      ],
      [
        "Ġ",
        "im"
      ],
      [
        "ad",
        "y"
      ],
      [
        "Ġcare",
        "ful"
      ],
      [
        "a",
        "ut"
      ],
      [
        "v",
        "es"
      ],
      [
        "Ġg",
        "r"
      ],
      [
        "ll",
        "y"
      ],
      [
        "Ġa",
        "d"
      ],
      [
        "T",
        "h"
      ],
      [
        "Ġthan",
        "ked"
      ],
      [
        "b",
        "er"
      ],
      [
        "Ġlaug",
        "hed"
      ],
      [
        "Ġsk",
        "y"
      ],
      [
        "Ġbe",
        "aut"
      ],
      [
        "Ġe",
        "ven"
      ],
      [
        "v",
        "ent"
      ],
      [
        "Ġfa",
        "st"
      ],
      [
        "Ġc",
        "he"
      ],
      [
        "Ġj",
        "ump"
      ],
      [
        "Ġb",
        "ra"
      ],
      [
        "ur",
        "p"
      ],
      [
        "le",
        "w"
      ],
      [
        "Ġb",
        "y"
      ],
      [
        "o",
        "y"
      ],
      [
        "in",
        "y"
      ],
      [
        "Ġt",
        "e"
      ],
      [
        "Ġh",
        "urt"
      ],
      [
        "Ġl",
        "ist"
      ],
      [
        "p",
        "t"
      ],
      [
        "Ġg",
        "ard"
      ],
      [
        "Ġgard",
        "en"
      ],
      [
        "a",
        "se"
      ],
      [
        "sel",
        "f"
      ],
      [
        "Ġ",
        "Ã¢"
      ],
      [
        "Ġl",
        "oud"
      ],
      [
        "Ġst",
        "ill"
      ],
      [
        "Ġg",
        "l"
      ],
      [
        "Ġbeaut",
        "i"
      ],
      [
        "Ġlot",
        "s"
      ],
      [
        "Ġbeauti",
        "ful"
      ],
      [
        "c",
        "t"
      ],
      [
        "Ġanimal",
        "s"
      ],
      [
        "Ġc",
        "ome"
      ],
      [
        "i",
        "es"
      ],
      [
        "Ġli",
        "ved"
      ],
      [
        "Ġu",
        "nder"
      ],
      [
        "Ġh",
        "ard"
      ],
      [
        "Ġwa",
        "y"
      ],
      [
        "he",
        "s"
      ],
      [
        "r",
        "m"
      ],
      [
        "Ġ",
        "P"
      ],
      [
        "Ġl",
        "et"
      ],
      [
        "Ġw",
        "o"
      ],
      [
        "Ġf",
        "am"
      ],
      [
        "ĠA",
        "s"
      ],
      [
        "w",
        "n"
      ],
      [
        "oo",
        "l"
      ],
      [
        "Å",
        "ĵ"
      ],
      [
        "Ġco",
        "l"
      ],
      [
        "o",
        "ck"
      ],
      [
        "b",
        "e"
      ],
      [
        "ec",
        "t"
      ],
      [
        "Ġc",
        "u"
      ],
      [
        "ig",
        "h"
      ],
      [
        "Ġb",
        "oth"
      ],
      [
        "ĠJo",
        "h"
      ],
      [
        "n",
        "ing"
      ],
      [
        "k",
        "ay"
      ],
      [
        "ĠA",
        "fter"
      ],
      [
        "Ġd",
        "an"
      ],
      [
        "Ġr",
        "a"
      ],
      [
        "Ġsa",
        "fe"
      ],
      [
        "a",
        "st"
      ],
      [
        "Ġit",
        "s"
      ],
      [
        "Ġre",
        "m"
      ],
      [
        "Ġst",
        "ay"
      ],
      [
        "Ġbra",
        "ve"
      ],
      [
        "Ġf",
        "lew"
      ],
      [
        "Ġb",
        "ook"
      ],
      [
        "Ġf",
        "ly"
      ],
      [
        "an",
        "e"
      ],
      [
        "Ġb",
        "ad"
      ],
      [
        "Ġdo",
        "ll"
      ],
      [
        "Ġsh",
        "ould"
      ],
      [
        "uc",
        "y"
      ],
      [
        "Ġr",
        "ed"
      ],
      [
        "re",
        "e"
      ],
      [
        "Ġim",
        "p"
      ],
      [
        "Ġan",
        "gry"
      ],
      [
        "op",
        "le"
      ],
      [
        "Ġst",
        "or"
      ],
      [
        "ĠL",
        "ucy"
      ],
      [
        "Ġcall",
        "ed"
      ],
      [
        "Ġtw",
        "o"
      ],
      [
        "I",
        "t"
      ],
      [
        "is",
        "hed"
      ],
      [
        "Ġd",
        "ra"
      ],
      [
        "L",
        "et"
      ],
      [
        "Ġp",
        "ic"
      ],
      [
        "Ġcle",
        "an"
      ],
      [
        "Ġf",
        "in"
      ],
      [
        "Ġwal",
        "ked"
      ],
      [
        "ag",
        "e"
      ],
      [
        "dd",
        "ed"
      ],
      [
        "Ġsh",
        "are"
      ],
      [
        "Ġfam",
        "ily"
      ],
      [
        "urp",
        "r"
      ],
      [
        "Ġpe",
        "ople"
      ],
      [
        "i",
        "p"
      ],
      [
        "Ġ",
        "G"
      ],
      [
        "Ġs",
        "urpr"
      ],
      [
        "N",
        "o"
      ],
      [
        "Ġro",
        "ck"
      ],
      [
        "l",
        "ed"
      ],
      [
        "il",
        "ly"
      ],
      [
        "Ġso",
        "on"
      ],
      [
        "Ġpret",
        "ty"
      ],
      [
        "Ġsh",
        "iny"
      ],
      [
        "ĠB",
        "ob"
      ],
      [
        "f",
        "ore"
      ],
      [
        "um",
        "my"
      ],
      [
        "Ġg",
        "round"
      ],
      [
        "Ġke",
        "pt"
      ],
      [
        "Ġf",
        "ore"
      ],
      [
        "Ġgo",
        "ing"
      ],
      [
        "Ġw",
        "ind"
      ],
      [
        "ĠJoh",
        "n"
      ],
      [
        "Ġc",
        "on"
      ],
      [
        "Ġn",
        "ow"
      ],
      [
        "Ġst",
        "o"
      ],
      [
        "ar",
        "y"
      ],
      [
        "is",
        "ed"
      ],
      [
        "t",
        "ure"
      ],
      [
        "Ġno",
        "ise"
      ],
      [
        "e",
        "et"
      ],
      [
        "Ġdo",
        "or"
      ],
      [
        "Ġke",
        "ep"
      ],
      [
        "i",
        "ed"
      ],
      [
        "Ġno",
        "dded"
      ],
      [
        "Ġf",
        "ar"
      ],
      [
        "Ġop",
        "ened"
      ],
      [
        "Ġexpl",
        "ore"
      ],
      [
        "W",
        "hat"
      ],
      [
        "Ġe",
        "y"
      ],
      [
        "Ġad",
        "vent"
      ],
      [
        "Ġtr",
        "uck"
      ],
      [
        "Ġc",
        "ry"
      ],
      [
        "Ġt",
        "urn"
      ],
      [
        "Ġcol",
        "or"
      ],
      [
        "Ġ",
        "ide"
      ],
      [
        "âĤ¬",
        "â"
      ],
      [
        "Ġbe",
        "fore"
      ],
      [
        "ĠS",
        "ue"
      ],
      [
        "Ġwh",
        "ile"
      ],
      [
        "f",
        "f"
      ],
      [
        "im",
        "b"
      ],
      [
        "Ġ",
        "R"
      ],
      [
        "ay",
        "be"
      ],
      [
        "s",
        "o"
      ],
      [
        "Ġcl",
        "imb"
      ],
      [
        "Ġre",
        "al"
      ],
      [
        "ĠMom",
        "my"
      ],
      [
        "Ġc",
        "re"
      ],
      [
        "t",
        "hing"
      ],
      [
        "Ġf",
        "r"
      ],
      [
        "Ġal",
        "so"
      ],
      [
        "Ġb",
        "ed"
      ],
      [
        "Ġpick",
        "ed"
      ],
      [
        "le",
        "s"
      ],
      [
        "Ġide",
        "a"
      ],
      [
        "Th",
        "ank"
      ],
      [
        "h",
        "y"
      ],
      [
        "Ġpic",
        "ture"
      ],
      [
        "Ġth",
        "r"
      ],
      [
        "Ġfeel",
        "ing"
      ],
      [
        "Ġn",
        "ext"
      ],
      [
        "g",
        "er"
      ],
      [
        "Ġw",
        "r"
      ],
      [
        "k",
        "es"
      ],
      [
        "Ġha",
        "s"
      ],
      [
        "Ġu",
        "n"
      ],
      [
        "u",
        "ch"
      ],
      [
        "Ġto",
        "w"
      ],
      [
        "Ġ",
        "N"
      ],
      [
        "ĠS",
        "p"
      ],
      [
        "T",
        "hat"
      ],
      [
        "Ġt",
        "ra"
      ],
      [
        "Ħ",
        "¢"
      ],
      [
        "âĤ¬â",
        "Ħ¢"
      ],
      [
        "i",
        "ous"
      ],
      [
        "ĠD",
        "ad"
      ],
      [
        "j",
        "oy"
      ],
      [
        "Ġwal",
        "king"
      ],
      [
        "Ġlist",
        "en"
      ],
      [
        "Ġwa",
        "it"
      ],
      [
        "ic",
        "ed"
      ],
      [
        "Ġsmil",
        "e"
      ],
      [
        "t",
        "ing"
      ],
      [
        "Ġm",
        "a"
      ],
      [
        "em",
        "ber"
      ],
      [
        "Ġbe",
        "ing"
      ],
      [
        "Ġj",
        "o"
      ],
      [
        "Ġadvent",
        "ure"
      ],
      [
        "Ġclo",
        "s"
      ],
      [
        "Ġsto",
        "pped"
      ],
      [
        "o",
        "on"
      ],
      [
        "Ġsl",
        "ide"
      ],
      [
        "Ġey",
        "es"
      ],
      [
        "Ġwal",
        "k"
      ],
      [
        "Ġa",
        "fter"
      ],
      [
        "Ġhand",
        "s"
      ],
      [
        "Ġg",
        "i"
      ],
      [
        "ug",
        "ht"
      ],
      [
        "Ġbl",
        "ue"
      ],
      [
        "a",
        "c"
      ],
      [
        "Ġf",
        "ood"
      ],
      [
        "Ġgre",
        "at"
      ],
      [
        "Ġre",
        "pl"
      ],
      [
        "Ġwat",
        "ch"
      ],
      [
        "Ġd",
        "if"
      ],
      [
        "Ġflow",
        "ers"
      ],
      [
        "Ġf",
        "ish"
      ],
      [
        "Ġd",
        "el"
      ],
      [
        "Ġen",
        "joy"
      ],
      [
        "Ġstr",
        "ong"
      ],
      [
        "Ġrem",
        "ember"
      ],
      [
        "Ġth",
        "ink"
      ],
      [
        "Ġloo",
        "king"
      ],
      [
        "Ġd",
        "is"
      ],
      [
        "Ġas",
        "k"
      ],
      [
        "Ġb",
        "re"
      ],
      [
        "Ġg",
        "ive"
      ],
      [
        "a",
        "ble"
      ],
      [
        "Ġu",
        "s"
      ],
      [
        "ll",
        "ow"
      ],
      [
        "Ġv",
        "o"
      ],
      [
        "ma",
        "z"
      ],
      [
        "Ġbr",
        "o"
      ],
      [
        "Ġa",
        "pp"
      ],
      [
        "Ġa",
        "maz"
      ],
      [
        "Ġnot",
        "iced"
      ],
      [
        "Ġo",
        "kay"
      ],
      [
        "Ġe",
        "ver"
      ],
      [
        "Ġs",
        "ound"
      ],
      [
        "Ġr",
        "ain"
      ],
      [
        "ir",
        "st"
      ],
      [
        "Ġt",
        "al"
      ],
      [
        "Ġwo",
        "nder"
      ],
      [
        "Ġst",
        "ick"
      ],
      [
        "Ġsh",
        "out"
      ],
      [
        "Ġbo",
        "at"
      ],
      [
        "t",
        "ed"
      ],
      [
        "iz",
        "ed"
      ],
      [
        "Ġrepl",
        "ied"
      ],
      [
        "Ġfore",
        "st"
      ],
      [
        "Ġshow",
        "ed"
      ],
      [
        "Ġne",
        "ar"
      ],
      [
        "c",
        "o"
      ],
      [
        "Ġqu",
        "ick"
      ],
      [
        "Ġme",
        "an"
      ],
      [
        "ĠSp",
        "ot"
      ],
      [
        "Ġo",
        "wn"
      ],
      [
        "Ġr",
        "ight"
      ],
      [
        "Ġu",
        "se"
      ],
      [
        "Ġa",
        "c"
      ],
      [
        "Ġwor",
        "k"
      ],
      [
        "Ġfo",
        "llow"
      ],
      [
        "le",
        "ase"
      ],
      [
        "Ġh",
        "igh"
      ],
      [
        "Ġhe",
        "ad"
      ],
      [
        "W",
        "e"
      ],
      [
        "g",
        "an"
      ],
      [
        "Ġbec",
        "ame"
      ],
      [
        "L",
        "ook"
      ],
      [
        "bb",
        "it"
      ],
      [
        "by",
        "e"
      ],
      [
        "Ġimp",
        "ort"
      ],
      [
        "Ġbl",
        "ock"
      ],
      [
        "Ġy",
        "ell"
      ],
      [
        "Ġevery",
        "one"
      ],
      [
        "Ġ",
        "our"
      ],
      [
        "Ġpl",
        "ace"
      ],
      [
        "Ġm",
        "or"
      ],
      [
        "Ġa",
        "m"
      ],
      [
        "nd",
        "ma"
      ],
      [
        "Ġimport",
        "ant"
      ],
      [
        "at",
        "h"
      ],
      [
        "d",
        "ay"
      ],
      [
        "ĠJ",
        "ane"
      ],
      [
        "Ġcu",
        "ri"
      ],
      [
        "fe",
        "re"
      ],
      [
        "an",
        "ge"
      ],
      [
        "Ġd",
        "e"
      ],
      [
        "il",
        "a"
      ],
      [
        "Ġdif",
        "fere"
      ],
      [
        "Ġw",
        "here"
      ],
      [
        "Ġra",
        "bbit"
      ],
      [
        "bb",
        "ed"
      ],
      [
        "Ġdo",
        "es"
      ],
      [
        "Ġwat",
        "ched"
      ],
      [
        "Ġh",
        "op"
      ],
      [
        "ĠT",
        "h"
      ],
      [
        "Ġbr",
        "ight"
      ],
      [
        "a",
        "ught"
      ],
      [
        "Ġm",
        "ag"
      ],
      [
        "Ġfa",
        "ce"
      ],
      [
        "Ġclos",
        "er"
      ],
      [
        "Ġa",
        "r"
      ],
      [
        "Ġcuri",
        "ous"
      ],
      [
        "Ġp",
        "ain"
      ],
      [
        "er",
        "ed"
      ],
      [
        "m",
        "ore"
      ],
      [
        "Ġany",
        "more"
      ],
      [
        "Ġbe",
        "en"
      ],
      [
        "Ġy",
        "e"
      ],
      [
        "Ġquick",
        "ly"
      ],
      [
        "n",
        "g"
      ],
      [
        "ĠL",
        "ila"
      ],
      [
        "Ġop",
        "en"
      ],
      [
        "le",
        "ep"
      ],
      [
        "Ġvo",
        "ice"
      ],
      [
        "Ġc",
        "ake"
      ],
      [
        "Ġgood",
        "bye"
      ],
      [
        "Ġst",
        "ore"
      ],
      [
        "Ġc",
        "ook"
      ],
      [
        "Ġdre",
        "ss"
      ],
      [
        "it",
        "c"
      ],
      [
        "Ġdiffere",
        "nt"
      ],
      [
        "Ġwa",
        "rm"
      ],
      [
        "Ġfor",
        "g"
      ],
      [
        "Ġt",
        "ell"
      ],
      [
        "Ġbe",
        "l"
      ],
      [
        "C",
        "an"
      ],
      [
        "Ġfi",
        "re"
      ],
      [
        "Ġs",
        "ure"
      ],
      [
        "e",
        "y"
      ],
      [
        "Ġc",
        "ou"
      ],
      [
        "ir",
        "ed"
      ],
      [
        "Ġse",
        "es"
      ],
      [
        "Ġstor",
        "y"
      ],
      [
        "a",
        "ched"
      ],
      [
        "u",
        "ff"
      ],
      [
        "Ġsw",
        "eet"
      ],
      [
        "Ġch",
        "ild"
      ],
      [
        "Ġf",
        "irst"
      ],
      [
        "Ġfa",
        "v"
      ],
      [
        "Ġhelp",
        "ed"
      ],
      [
        "Ġfe",
        "ll"
      ],
      [
        "Ġp",
        "ull"
      ],
      [
        "Ġbut",
        "ter"
      ],
      [
        "im",
        "es"
      ],
      [
        "Ġdra",
        "w"
      ],
      [
        "Ġn",
        "ight"
      ],
      [
        "Ġ",
        "z"
      ],
      [
        "Ġp",
        "er"
      ],
      [
        "Ġp",
        "u"
      ],
      [
        "Ġb",
        "us"
      ],
      [
        "is",
        "y"
      ],
      [
        "Ġcon",
        "t"
      ],
      [
        "Ġb",
        "it"
      ],
      [
        "Ġhe",
        "re"
      ],
      [
        "Ġth",
        "ree"
      ],
      [
        "ĠSara",
        "h"
      ],
      [
        "Ġle",
        "a"
      ],
      [
        "Ġbr",
        "other"
      ],
      [
        "Ġr",
        "u"
      ],
      [
        "Ġk",
        "itc"
      ],
      [
        "Ġjump",
        "ed"
      ],
      [
        "Ġkitc",
        "hen"
      ],
      [
        "ĠD",
        "o"
      ],
      [
        "in",
        "s"
      ],
      [
        "Ġbe",
        "h"
      ],
      [
        "Ġk",
        "id"
      ],
      [
        "Ġs",
        "ing"
      ],
      [
        "Ġon",
        "ly"
      ],
      [
        "Ġhapp",
        "ened"
      ],
      [
        "n",
        "er"
      ],
      [
        "Ġst",
        "op"
      ],
      [
        "ĠI",
        "n"
      ],
      [
        "Ġfl",
        "o"
      ],
      [
        "Ġg",
        "ame"
      ],
      [
        "Ġbird",
        "s"
      ],
      [
        "pp",
        "y"
      ],
      [
        "is",
        "s"
      ],
      [
        "Ġso",
        "ft"
      ],
      [
        "Ġpr",
        "in"
      ],
      [
        "ak",
        "es"
      ],
      [
        "z",
        "y"
      ],
      [
        "M",
        "om"
      ],
      [
        "Ġgl",
        "ad"
      ],
      [
        "Ġc",
        "ra"
      ],
      [
        "'",
        "re"
      ],
      [
        "Ġm",
        "ess"
      ],
      [
        "ĠL",
        "et"
      ],
      [
        "Ġm",
        "on"
      ],
      [
        "Ġd",
        "r"
      ],
      [
        "un",
        "ny"
      ],
      [
        "ĠEvery",
        "one"
      ],
      [
        "Ġsa",
        "nd"
      ],
      [
        "Ġc",
        "r"
      ],
      [
        "Ġwor",
        "ld"
      ],
      [
        "Ġgra",
        "ss"
      ],
      [
        "Ġblock",
        "s"
      ],
      [
        "Ġre",
        "ached"
      ],
      [
        "Ġh",
        "at"
      ],
      [
        "Ġl",
        "ady"
      ],
      [
        "Ġgra",
        "bbed"
      ],
      [
        "Ġc",
        "ut"
      ],
      [
        "W",
        "ow"
      ],
      [
        "nt",
        "s"
      ],
      [
        "ĠT",
        "hat"
      ],
      [
        "Ġha",
        "ving"
      ],
      [
        "at",
        "er"
      ],
      [
        "Ġat",
        "e"
      ],
      [
        "Ġshout",
        "ed"
      ],
      [
        "Ġre",
        "st"
      ],
      [
        "Ġy",
        "ummy"
      ],
      [
        "o",
        "lly"
      ],
      [
        "Ġthr",
        "ough"
      ],
      [
        "Ġf",
        "ro"
      ],
      [
        "Ġre",
        "ady"
      ],
      [
        "Ġnam",
        "e"
      ],
      [
        "Ġreal",
        "ized"
      ],
      [
        "Ġfav",
        "or"
      ],
      [
        "Ġd",
        "one"
      ],
      [
        "Ġc",
        "ried"
      ],
      [
        "Ġflow",
        "er"
      ],
      [
        "Ġfavor",
        "ite"
      ],
      [
        "ĠC",
        "an"
      ],
      [
        "as",
        "s"
      ],
      [
        "Ġs",
        "qu"
      ],
      [
        "Ġth",
        "ing"
      ],
      [
        "Ġwor",
        "ry"
      ],
      [
        "Ġt",
        "ired"
      ],
      [
        "Ġp",
        "are"
      ],
      [
        "Ġp",
        "ap"
      ],
      [
        "Ġre",
        "ally"
      ],
      [
        "Ġmag",
        "ic"
      ],
      [
        "Ġt",
        "ri"
      ],
      [
        "Ġpo",
        "nd"
      ],
      [
        "Ġl",
        "ess"
      ],
      [
        "w",
        "here"
      ],
      [
        "Ġunder",
        "st"
      ],
      [
        "a",
        "ir"
      ],
      [
        "Ġgre",
        "en"
      ],
      [
        "i",
        "ent"
      ],
      [
        "Ġwa",
        "ved"
      ],
      [
        "Ġm",
        "um"
      ],
      [
        "Ġbe",
        "gan"
      ],
      [
        "Ġfun",
        "ny"
      ],
      [
        "Ġta",
        "st"
      ],
      [
        "Ġp",
        "us"
      ],
      [
        "at",
        "her"
      ],
      [
        "ed",
        "dy"
      ],
      [
        "Ġlook",
        "s"
      ],
      [
        "ĠBen",
        "ny"
      ],
      [
        "ard",
        "s"
      ],
      [
        "Ġbutter",
        "f"
      ],
      [
        "k",
        "en"
      ],
      [
        "ĠJo",
        "e"
      ],
      [
        "a",
        "isy"
      ],
      [
        "m",
        "er"
      ],
      [
        "Ġcat",
        "ch"
      ],
      [
        "Ġse",
        "en"
      ],
      [
        "Ġkid",
        "s"
      ],
      [
        "Ġan",
        "other"
      ],
      [
        "Ġpret",
        "end"
      ],
      [
        "Ġfi",
        "x"
      ],
      [
        "t",
        "h"
      ],
      [
        "Ġd",
        "in"
      ],
      [
        "Ġf",
        "ill"
      ],
      [
        "fu",
        "lly"
      ],
      [
        "s",
        "h"
      ],
      [
        "Ġhim",
        "self"
      ],
      [
        "Ġto",
        "uch"
      ],
      [
        "Ġcom",
        "ing"
      ],
      [
        "Ġma",
        "king"
      ],
      [
        "Ġsw",
        "ing"
      ],
      [
        "Ġho",
        "le"
      ],
      [
        "Ġre",
        "ad"
      ],
      [
        "Ġb",
        "ag"
      ],
      [
        "ĠS",
        "ally"
      ],
      [
        "D",
        "on"
      ],
      [
        "Ġp",
        "art"
      ],
      [
        "ig",
        "n"
      ],
      [
        "Ġc",
        "ool"
      ],
      [
        "Ġha",
        "ir"
      ],
      [
        "ĠF",
        "in"
      ],
      [
        "st",
        "er"
      ],
      [
        "Ġ",
        "K"
      ],
      [
        "Ġu",
        "sed"
      ],
      [
        "Ġb",
        "unny"
      ],
      [
        "Ġsw",
        "im"
      ],
      [
        "Ġbeh",
        "ind"
      ],
      [
        "b",
        "o"
      ],
      [
        "Ġyell",
        "ow"
      ],
      [
        "Ġfro",
        "g"
      ],
      [
        "Ġsm",
        "ell"
      ],
      [
        "Ġp",
        "rom"
      ],
      [
        "Ġpare",
        "nts"
      ],
      [
        "Ġco",
        "ld"
      ],
      [
        "Ġb",
        "a"
      ],
      [
        "Ġd",
        "ark"
      ],
      [
        "el",
        "y"
      ],
      [
        "u",
        "ed"
      ],
      [
        "Ġd",
        "ro"
      ],
      [
        "at",
        "ion"
      ],
      [
        "Ġdel",
        "ic"
      ],
      [
        "Ġsurpr",
        "ise"
      ],
      [
        "Ġl",
        "ight"
      ],
      [
        "Ġrun",
        "ning"
      ],
      [
        "Ġs",
        "et"
      ],
      [
        "Ġtre",
        "es"
      ],
      [
        "i",
        "ke"
      ],
      [
        "Ġw",
        "ished"
      ],
      [
        "Ġst",
        "e"
      ],
      [
        "Ġho",
        "pped"
      ],
      [
        "Ġs",
        "leep"
      ],
      [
        "Ġw",
        "ood"
      ],
      [
        "Ġf",
        "ull"
      ],
      [
        "Ġhapp",
        "ily"
      ],
      [
        "one",
        "y"
      ],
      [
        "Ġwh",
        "y"
      ],
      [
        "Ġli",
        "kes"
      ],
      [
        "Ġho",
        "ld"
      ],
      [
        "Ġwor",
        "ked"
      ],
      [
        "Ġcar",
        "s"
      ],
      [
        "Ġli",
        "on"
      ],
      [
        "Ġremember",
        "ed"
      ],
      [
        "Ġlo",
        "st"
      ],
      [
        "Ġlaug",
        "h"
      ],
      [
        "Ġpap",
        "er"
      ],
      [
        "Ġsh",
        "o"
      ],
      [
        "ĠD",
        "aisy"
      ],
      [
        "Ġsl",
        "ow"
      ],
      [
        "Ġd",
        "ri"
      ],
      [
        "Ġm",
        "ouse"
      ],
      [
        "Ġbu",
        "y"
      ],
      [
        "Ġper",
        "f"
      ],
      [
        "Ġflo",
        "or"
      ],
      [
        "H",
        "ell"
      ],
      [
        "u",
        "l"
      ],
      [
        "Hell",
        "o"
      ],
      [
        "Ġdre",
        "am"
      ],
      [
        "en",
        "s"
      ],
      [
        "Ġd",
        "uck"
      ],
      [
        "ĠE",
        "m"
      ],
      [
        "Ġbutterf",
        "ly"
      ],
      [
        "Ġb",
        "ow"
      ],
      [
        "Ġto",
        "p"
      ],
      [
        "Ġbu",
        "ild"
      ],
      [
        "Ġsn",
        "ow"
      ],
      [
        "Ġt",
        "all"
      ],
      [
        "Ġs",
        "at"
      ],
      [
        "Ġneed",
        "ed"
      ],
      [
        "Ġenjoy",
        "ed"
      ],
      [
        "ĠB",
        "illy"
      ],
      [
        "Ġless",
        "on"
      ],
      [
        "Ġmo",
        "ve"
      ],
      [
        "Ġp",
        "re"
      ],
      [
        "ĠTom",
        "my"
      ],
      [
        "Ġye",
        "ars"
      ],
      [
        "ĠA",
        "t"
      ],
      [
        "Ġle",
        "ft"
      ],
      [
        "Ġh",
        "ill"
      ],
      [
        "Ġhe",
        "ar"
      ],
      [
        "Ġwe",
        "ar"
      ],
      [
        "Ġthan",
        "k"
      ],
      [
        "Ġh",
        "id"
      ],
      [
        "Ġcare",
        "fully"
      ],
      [
        "Ġwind",
        "ow"
      ],
      [
        "Ġdo",
        "ing"
      ],
      [
        "\"",
        "."
      ],
      [
        "re",
        "l"
      ],
      [
        "Ġany",
        "thing"
      ],
      [
        "Ġb",
        "ug"
      ],
      [
        "and",
        "y"
      ],
      [
        "Ġa",
        "ir"
      ],
      [
        "uff",
        "y"
      ],
      [
        "Ġhe",
        "ld"
      ],
      [
        "ĠM",
        "olly"
      ],
      [
        "i",
        "ver"
      ],
      [
        "ĠThe",
        "re"
      ],
      [
        "Ġfollow",
        "ed"
      ],
      [
        "c",
        "ess"
      ],
      [
        "Ġh",
        "un"
      ],
      [
        "Ġsp",
        "ot"
      ],
      [
        "Ġcont",
        "in"
      ],
      [
        "Ġfa",
        "ir"
      ],
      [
        "Ġher",
        "self"
      ],
      [
        "ĠN",
        "ow"
      ],
      [
        "Ġfin",
        "ished"
      ],
      [
        "Ġwr",
        "ong"
      ],
      [
        "or",
        "n"
      ],
      [
        "re",
        "n"
      ],
      [
        "as",
        "ure"
      ],
      [
        "Ġta",
        "ble"
      ],
      [
        "Ġfriend",
        "ly"
      ],
      [
        "Ġ",
        "ice"
      ],
      [
        "Ġp",
        "lease"
      ],
      [
        "Ġc",
        "ast"
      ],
      [
        "re",
        "ed"
      ],
      [
        "Ġbook",
        "s"
      ],
      [
        "Ġsurpr",
        "ised"
      ],
      [
        "Ġ",
        "-"
      ],
      [
        "ĠG",
        "ra"
      ],
      [
        "Ġar",
        "ri"
      ],
      [
        "ĠJ",
        "en"
      ],
      [
        "d",
        "s"
      ],
      [
        "in",
        "ed"
      ],
      [
        "re",
        "am"
      ],
      [
        "ĠFin",
        "ally"
      ],
      [
        "g",
        "on"
      ],
      [
        "Ġd",
        "ir"
      ],
      [
        "Ġg",
        "ent"
      ],
      [
        "as",
        "h"
      ],
      [
        "ie",
        "ld"
      ],
      [
        "ĠJ",
        "im"
      ],
      [
        "s",
        "p"
      ],
      [
        "Ġs",
        "ong"
      ],
      [
        "a",
        "v"
      ],
      [
        "Ġunderst",
        "and"
      ],
      [
        "u",
        "it"
      ],
      [
        "Ġgra",
        "ndma"
      ],
      [
        "Ġdelic",
        "ious"
      ],
      [
        "Ġwonder",
        "ful"
      ],
      [
        "Ġwant",
        "s"
      ],
      [
        "Ġcontin",
        "ued"
      ],
      [
        "ro",
        "ss"
      ],
      [
        "Ġt",
        "ight"
      ],
      [
        "Ġm",
        "ight"
      ],
      [
        "Ġa",
        "rm"
      ],
      [
        "Ġh",
        "ot"
      ],
      [
        "Ġcolor",
        "s"
      ],
      [
        "Ġmu",
        "s"
      ],
      [
        "ĠTh",
        "is"
      ],
      [
        "Ġchild",
        "ren"
      ],
      [
        "Ġarri",
        "ved"
      ],
      [
        "Ġdin",
        "ner"
      ],
      [
        "Ġm",
        "akes"
      ],
      [
        "Ġta",
        "il"
      ],
      [
        "Ġclo",
        "se"
      ],
      [
        "Ġg",
        "one"
      ],
      [
        "Ġ",
        "el"
      ],
      [
        "Ġlea",
        "ves"
      ],
      [
        "Ġm",
        "at"
      ],
      [
        "Ġre",
        "l"
      ],
      [
        "Ġwa",
        "ll"
      ],
      [
        "Ġcre",
        "at"
      ],
      [
        "Ġforg",
        "ot"
      ],
      [
        "Ġfill",
        "ed"
      ],
      [
        "ro",
        "om"
      ],
      [
        "Ġy",
        "es"
      ],
      [
        "Ġsc",
        "ary"
      ],
      [
        "Ġbro",
        "ken"
      ],
      [
        "Ġsome",
        "one"
      ],
      [
        "Ġpo",
        "in"
      ],
      [
        "Ġmom",
        "ent"
      ],
      [
        "ĠF",
        "l"
      ],
      [
        "Ġdan",
        "c"
      ],
      [
        "ic",
        "y"
      ],
      [
        "Ġball",
        "oon"
      ],
      [
        "Ġcou",
        "nt"
      ],
      [
        "'",
        "ll"
      ],
      [
        "Ġp",
        "at"
      ],
      [
        "ĠA",
        "my"
      ],
      [
        "Ġv",
        "is"
      ],
      [
        "Ġpicture",
        "s"
      ],
      [
        "ct",
        "or"
      ],
      [
        "Ġm",
        "et"
      ],
      [
        "m",
        "an"
      ],
      [
        "Ġa",
        "ble"
      ],
      [
        "Ġw",
        "et"
      ],
      [
        "Ġag",
        "reed"
      ],
      [
        "Ġother",
        "s"
      ],
      [
        "as",
        "k"
      ],
      [
        "Ġf",
        "all"
      ],
      [
        "Ġel",
        "se"
      ],
      [
        "Ġcook",
        "ies"
      ],
      [
        "ĠJ",
        "ill"
      ],
      [
        "Ġcast",
        "le"
      ],
      [
        "Ġm",
        "other"
      ],
      [
        "ĠM",
        "aybe"
      ],
      [
        "on",
        "s"
      ],
      [
        "Ġsmil",
        "es"
      ],
      [
        "Ġbre",
        "ak"
      ],
      [
        "l",
        "f"
      ],
      [
        "Ġwh",
        "ite"
      ],
      [
        "Ġget",
        "ting"
      ],
      [
        "Ġhun",
        "gry"
      ],
      [
        "Ġp",
        "ink"
      ],
      [
        "ou",
        "p"
      ],
      [
        "Ġen",
        "ough"
      ],
      [
        "Ġmor",
        "ning"
      ],
      [
        "ĠT",
        "o"
      ],
      [
        "Ġdad",
        "dy"
      ],
      [
        "ĠW",
        "hat"
      ],
      [
        "Ġcl",
        "ot"
      ],
      [
        "i",
        "ch"
      ],
      [
        "r",
        "ow"
      ],
      [
        "Ġturn",
        "ed"
      ],
      [
        "Ġtal",
        "k"
      ],
      [
        "Ġtry",
        "ing"
      ],
      [
        "Ġamaz",
        "ing"
      ],
      [
        "Ġmus",
        "ic"
      ],
      [
        "Ġsa",
        "il"
      ],
      [
        "Ġclot",
        "hes"
      ],
      [
        "Ġm",
        "ar"
      ],
      [
        "Ġclimb",
        "ed"
      ],
      [
        "r",
        "ed"
      ],
      [
        "Ġfe",
        "w"
      ],
      [
        "Ġro",
        "ll"
      ],
      [
        "Ġsqu",
        "ir"
      ],
      [
        "Ġbr",
        "ought"
      ],
      [
        "r",
        "ot"
      ],
      [
        "am",
        "p"
      ],
      [
        "Ġlist",
        "ened"
      ],
      [
        "w",
        "l"
      ],
      [
        "Ġsp",
        "l"
      ],
      [
        "Ġperf",
        "ect"
      ],
      [
        "Ġfin",
        "ally"
      ],
      [
        "q",
        "ue"
      ],
      [
        "or",
        "ing"
      ],
      [
        "Ġsomet",
        "imes"
      ],
      [
        "ke",
        "y"
      ],
      [
        "Ġpu",
        "ppy"
      ],
      [
        "a",
        "pp"
      ],
      [
        "Ġs",
        "illy"
      ],
      [
        "Ġp",
        "et"
      ],
      [
        "Ġsquir",
        "rel"
      ],
      [
        "Ġbe",
        "ach"
      ],
      [
        "M",
        "aybe"
      ],
      [
        "ri",
        "es"
      ],
      [
        "Th",
        "is"
      ],
      [
        "Ġp",
        "i"
      ],
      [
        "Ġj",
        "u"
      ],
      [
        "Ġask",
        "s"
      ],
      [
        "o",
        "om"
      ],
      [
        "Ġf",
        "ight"
      ],
      [
        "an",
        "ce"
      ],
      [
        "Ġwa",
        "ited"
      ],
      [
        "Ġevery",
        "thing"
      ],
      [
        "a",
        "pped"
      ],
      [
        "Ġt",
        "eddy"
      ],
      [
        "Ġr",
        "ide"
      ],
      [
        "uck",
        "y"
      ],
      [
        "Ġpo",
        "l"
      ],
      [
        "is",
        "ter"
      ],
      [
        "Ġal",
        "one"
      ],
      [
        "g",
        "g"
      ],
      [
        "Ġh",
        "ide"
      ],
      [
        "Ġcom",
        "p"
      ],
      [
        "z",
        "z"
      ],
      [
        "Ġstay",
        "ed"
      ],
      [
        "O",
        "h"
      ],
      [
        "Ġgr",
        "ow"
      ],
      [
        "ow",
        "er"
      ],
      [
        "Ġwas",
        "n"
      ],
      [
        "d",
        "er"
      ],
      [
        "Ġde",
        "ep"
      ],
      [
        "Ġwood",
        "s"
      ],
      [
        "at",
        "ed"
      ],
      [
        "am",
        "a"
      ],
      [
        "el",
        "c"
      ],
      [
        "Ġdan",
        "ger"
      ],
      [
        "Ġstr",
        "ange"
      ],
      [
        "i",
        "x"
      ],
      [
        "Ġamaz",
        "ed"
      ],
      [
        "Ġfly",
        "ing"
      ],
      [
        "Ġfo",
        "x"
      ],
      [
        "o",
        "s"
      ],
      [
        "op",
        "e"
      ],
      [
        "ot",
        "t"
      ],
      [
        "Ġs",
        "it"
      ],
      [
        "Ġl",
        "ake"
      ],
      [
        "Ġtow",
        "ards"
      ],
      [
        "Ġvis",
        "it"
      ],
      [
        "an",
        "c"
      ],
      [
        "Ġse",
        "ar"
      ],
      [
        "e",
        "re"
      ],
      [
        "re",
        "w"
      ],
      [
        "Ġba",
        "by"
      ],
      [
        "Ġpull",
        "ed"
      ],
      [
        "en",
        "ce"
      ],
      [
        "Ġsp",
        "ark"
      ],
      [
        "Ġcl",
        "oud"
      ],
      [
        "et",
        "er"
      ],
      [
        "Ġtra",
        "in"
      ],
      [
        "Ġp",
        "a"
      ],
      [
        "z",
        "e"
      ],
      [
        "Ġp",
        "en"
      ],
      [
        "Ġcre",
        "am"
      ],
      [
        "B",
        "ut"
      ],
      [
        "Ġj",
        "oy"
      ],
      [
        "p",
        "h"
      ],
      [
        "Ġmor",
        "al"
      ],
      [
        "ig",
        "g"
      ],
      [
        "av",
        "y"
      ],
      [
        "e",
        "ver"
      ],
      [
        "m",
        "e"
      ],
      [
        "Ġb",
        "ike"
      ],
      [
        "u",
        "p"
      ],
      [
        "t",
        "hy"
      ],
      [
        "is",
        "es"
      ],
      [
        "ss",
        "ed"
      ],
      [
        "Ġdo",
        "ctor"
      ],
      [
        "ĠA",
        "ll"
      ],
      [
        "Ġj",
        "ob"
      ],
      [
        "ug",
        "g"
      ],
      [
        "Ġthink",
        "s"
      ],
      [
        "Ġs",
        "ister"
      ],
      [
        "Ġdan",
        "ce"
      ],
      [
        "Ġdra",
        "gon"
      ],
      [
        "am",
        "es"
      ],
      [
        "Ġbig",
        "ger"
      ],
      [
        "ĠSo",
        "on"
      ],
      [
        "out",
        "h"
      ],
      [
        "Ġcu",
        "p"
      ],
      [
        "m",
        "ed"
      ],
      [
        "an",
        "g"
      ],
      [
        "Ġtre",
        "asure"
      ],
      [
        "Ġli",
        "ving"
      ],
      [
        "Ġsh",
        "ar"
      ],
      [
        "Ġpart",
        "y"
      ],
      [
        "un",
        "ch"
      ],
      [
        "Ġpain",
        "t"
      ],
      [
        "Ġprom",
        "ised"
      ],
      [
        "Ġm",
        "outh"
      ],
      [
        "Ġle",
        "ave"
      ],
      [
        "ĠFl",
        "uffy"
      ],
      [
        "Ġw",
        "on"
      ],
      [
        "ck",
        "et"
      ],
      [
        "Ġwor",
        "ried"
      ],
      [
        "Ġrun",
        "s"
      ],
      [
        "Ġgr",
        "ate"
      ],
      [
        "Ġf",
        "ield"
      ],
      [
        "Ġla",
        "nd"
      ],
      [
        "Ġb",
        "ott"
      ],
      [
        "Ġsh",
        "ared"
      ],
      [
        "O",
        "kay"
      ],
      [
        "Ġc",
        "andy"
      ],
      [
        "Ġs",
        "ide"
      ],
      [
        "Ġg",
        "u"
      ],
      [
        "Ġdoll",
        "s"
      ],
      [
        "Ġgrate",
        "ful"
      ],
      [
        "Ġbl",
        "ank"
      ],
      [
        "Ġprin",
        "cess"
      ],
      [
        "Ġw",
        "elc"
      ],
      [
        "ain",
        "ed"
      ],
      [
        "Ġblank",
        "et"
      ],
      [
        "Ġe",
        "m"
      ],
      [
        "Ġm",
        "oney"
      ],
      [
        "Ġhelp",
        "ing"
      ],
      [
        "Ġfar",
        "mer"
      ],
      [
        "Ġgi",
        "ft"
      ],
      [
        "Ġ",
        "ve"
      ],
      [
        "Ġslow",
        "ly"
      ],
      [
        "Ġbl",
        "ack"
      ],
      [
        "Ġtow",
        "er"
      ],
      [
        "or",
        "m"
      ],
      [
        "Ġevery",
        "where"
      ],
      [
        "Ġjo",
        "in"
      ],
      [
        "Ġp",
        "ot"
      ],
      [
        "T",
        "he"
      ],
      [
        "Ġdanger",
        "ous"
      ],
      [
        "i",
        "re"
      ],
      [
        "Ġf",
        "ur"
      ],
      [
        "Ġtre",
        "at"
      ],
      [
        "Ġcar",
        "rot"
      ],
      [
        "Ġbel",
        "ie"
      ],
      [
        "O",
        "K"
      ],
      [
        "ec",
        "es"
      ],
      [
        "Ġhe",
        "avy"
      ],
      [
        "Ġown",
        "er"
      ],
      [
        "le",
        "ph"
      ],
      [
        "Ġfast",
        "er"
      ],
      [
        "Ġcry",
        "ing"
      ],
      [
        "i",
        "pp"
      ],
      [
        "Ġm",
        "ix"
      ],
      [
        "Ġpi",
        "eces"
      ],
      [
        "c",
        "le"
      ],
      [
        "o",
        "l"
      ],
      [
        "Ġbow",
        "l"
      ],
      [
        "Ġtw",
        "ins"
      ],
      [
        "Ġat",
        "t"
      ],
      [
        "Ġre",
        "ach"
      ],
      [
        "Ġmagic",
        "al"
      ],
      [
        "i",
        "et"
      ],
      [
        "Ġmo",
        "st"
      ],
      [
        "u",
        "ally"
      ],
      [
        "H",
        "i"
      ],
      [
        "Ġs",
        "ign"
      ],
      [
        "s",
        "et"
      ],
      [
        "W",
        "hy"
      ],
      [
        "b",
        "ble"
      ],
      [
        "i",
        "pped"
      ],
      [
        "s",
        "w"
      ],
      [
        "Ġse",
        "c"
      ],
      [
        "f",
        "ort"
      ],
      [
        "Ġcolor",
        "ful"
      ],
      [
        "Ġch",
        "o"
      ],
      [
        "Ġste",
        "pped"
      ],
      [
        "l",
        "ing"
      ],
      [
        "Mom",
        "my"
      ],
      [
        "Ġan",
        "sw"
      ],
      [
        "Ġmon",
        "key"
      ],
      [
        "Ġdir",
        "ty"
      ],
      [
        "Ġsm",
        "art"
      ],
      [
        "e",
        "e"
      ],
      [
        "ĠEm",
        "ma"
      ],
      [
        "ĠM",
        "ama"
      ],
      [
        "Ġclo",
        "sed"
      ],
      [
        "m",
        "ing"
      ],
      [
        "le",
        "ss"
      ],
      [
        "Ġqu",
        "iet"
      ],
      [
        "Ġpl",
        "an"
      ],
      [
        "Ġsc",
        "ream"
      ],
      [
        "as",
        "ed"
      ],
      [
        "Ġpr",
        "o"
      ],
      [
        "Ġs",
        "uch"
      ],
      [
        "ĠT",
        "w"
      ],
      [
        "Ġac",
        "c"
      ],
      [
        "Ġh",
        "ig"
      ],
      [
        "id",
        "ent"
      ],
      [
        "ĠJ",
        "ust"
      ],
      [
        "um",
        "b"
      ],
      [
        "ĠJim",
        "my"
      ],
      [
        "e",
        "ar"
      ],
      [
        "Ġwor",
        "ds"
      ],
      [
        "Ġsn",
        "ack"
      ],
      [
        "Ġbro",
        "ke"
      ],
      [
        "S",
        "ure"
      ],
      [
        "Ġp",
        "ie"
      ],
      [
        "Ġsh",
        "ap"
      ],
      [
        "Ġac",
        "ross"
      ],
      [
        "Ġb",
        "uck"
      ],
      [
        "Ġb",
        "ath"
      ],
      [
        "Ġdis",
        "app"
      ],
      [
        "Ġhop",
        "ed"
      ],
      [
        "ĠGra",
        "ndma"
      ],
      [
        "ch",
        "ool"
      ],
      [
        "Ġb",
        "ar"
      ],
      [
        "ck",
        "ed"
      ],
      [
        "Ġpl",
        "ant"
      ],
      [
        "ĠM",
        "r"
      ],
      [
        "Ġcr",
        "ay"
      ],
      [
        "Ġhe",
        "al"
      ],
      [
        "d",
        "e"
      ],
      [
        "Ġst",
        "uck"
      ],
      [
        "Ġhe",
        "art"
      ],
      [
        "Ġne",
        "igh"
      ],
      [
        "Ġeat",
        "ing"
      ],
      [
        "Ġth",
        "rew"
      ],
      [
        "or",
        "ed"
      ],
      [
        "Ġs",
        "chool"
      ],
      [
        "Ġy",
        "ard"
      ],
      [
        "Ġmon",
        "ster"
      ],
      [
        "Ġl",
        "on"
      ],
      [
        "Ġte",
        "ac"
      ],
      [
        "Ġn",
        "ap"
      ],
      [
        "Ġmu",
        "st"
      ],
      [
        "Ġw",
        "in"
      ],
      [
        "Ġsec",
        "ret"
      ],
      [
        "Ġneigh",
        "b"
      ],
      [
        "Ġsa",
        "me"
      ],
      [
        "Ġfeel",
        "s"
      ],
      [
        "e",
        "k"
      ],
      [
        "Ġbr",
        "own"
      ],
      [
        "Ġc",
        "our"
      ],
      [
        "Ġr",
        "iver"
      ],
      [
        "Ġlon",
        "ely"
      ],
      [
        "Ġr",
        "ace"
      ],
      [
        "ra",
        "ct"
      ],
      [
        "Ġj",
        "e"
      ],
      [
        "b",
        "r"
      ],
      [
        "Ġwith",
        "out"
      ],
      [
        "it",
        "ing"
      ],
      [
        "Ġhig",
        "her"
      ],
      [
        "ĠM",
        "ary"
      ],
      [
        "Ġthr",
        "ow"
      ],
      [
        "ĠDad",
        "dy"
      ],
      [
        "Ġsp",
        "r"
      ],
      [
        "Ġpus",
        "hed"
      ],
      [
        "Ġbe",
        "e"
      ],
      [
        "Ġsho",
        "es"
      ],
      [
        "Ġto",
        "wn"
      ],
      [
        "ĠTw",
        "eet"
      ],
      [
        "Ġcour",
        "se"
      ],
      [
        "Ġb",
        "ite"
      ],
      [
        "Ġbut",
        "t"
      ],
      [
        "Ġno",
        "ises"
      ],
      [
        "Ġco",
        "ll"
      ],
      [
        "Ġwelc",
        "ome"
      ],
      [
        "ĠThe",
        "ir"
      ],
      [
        "e",
        "ared"
      ],
      [
        "Ġcl",
        "apped"
      ],
      [
        "Ġsw",
        "ings"
      ],
      [
        "Ġgent",
        "le"
      ],
      [
        "ĠW",
        "h"
      ],
      [
        "Ġto",
        "day"
      ],
      [
        "n",
        "ey"
      ],
      [
        "Ġfr",
        "uit"
      ],
      [
        "Ġbelie",
        "ve"
      ],
      [
        "Ġh",
        "it"
      ],
      [
        "Ġo",
        "wl"
      ],
      [
        "or",
        "row"
      ],
      [
        "Ġst",
        "and"
      ],
      [
        "Ġteac",
        "her"
      ],
      [
        "b",
        "ow"
      ],
      [
        "Ġse",
        "a"
      ],
      [
        "Ġacc",
        "ident"
      ],
      [
        "Ġg",
        "ames"
      ],
      [
        "Ġf",
        "ree"
      ],
      [
        "Ġl",
        "unch"
      ],
      [
        "Ġwe",
        "ll"
      ],
      [
        "Ġche",
        "ered"
      ],
      [
        "Ġw",
        "ings"
      ],
      [
        "Ġc",
        "a"
      ],
      [
        "Ġsa",
        "ng"
      ],
      [
        "i",
        "er"
      ],
      [
        "Ġb",
        "and"
      ],
      [
        "Ġbr",
        "ing"
      ],
      [
        "Ġd",
        "ry"
      ],
      [
        "Ġsm",
        "o"
      ],
      [
        "Ġrock",
        "s"
      ],
      [
        "ĠIn",
        "side"
      ],
      [
        "Ġdro",
        "ve"
      ],
      [
        "ou",
        "n"
      ],
      [
        "Ġfair",
        "y"
      ],
      [
        "L",
        "ily"
      ],
      [
        "Ġs",
        "oup"
      ],
      [
        "Ġle",
        "g"
      ],
      [
        "Ġlong",
        "er"
      ],
      [
        "vent",
        "ually"
      ],
      [
        "Ġdro",
        "pped"
      ],
      [
        "ask",
        "et"
      ],
      [
        "Ġp",
        "ack"
      ],
      [
        "Ġsh",
        "op"
      ],
      [
        "Ġpo",
        "cket"
      ],
      [
        "Ġapp",
        "le"
      ],
      [
        "leph",
        "ant"
      ],
      [
        "Ġj",
        "our"
      ],
      [
        "Ġhug",
        "s"
      ],
      [
        "Ġrain",
        "bow"
      ],
      [
        "Ġp",
        "ers"
      ],
      [
        "Ġup",
        "set"
      ],
      [
        "Ġexpl",
        "ained"
      ],
      [
        "Ġb",
        "en"
      ],
      [
        "ĠM",
        "um"
      ],
      [
        "Ġne",
        "ck"
      ],
      [
        "Ġor",
        "ange"
      ],
      [
        "e",
        "ad"
      ],
      [
        "Ġm",
        "in"
      ],
      [
        "Ġc",
        "aught"
      ],
      [
        "Ġin",
        "st"
      ],
      [
        "or",
        "d"
      ],
      [
        "ve",
        "l"
      ],
      [
        "Ġb",
        "asket"
      ],
      [
        "i",
        "ble"
      ],
      [
        "Ġp",
        "ig"
      ],
      [
        "ĠL",
        "ater"
      ],
      [
        "Ġhapp",
        "en"
      ],
      [
        "Ġsp",
        "oon"
      ],
      [
        "Ġsw",
        "am"
      ],
      [
        "Ġfor",
        "get"
      ],
      [
        "Ġe",
        "lephant"
      ],
      [
        "Ġre",
        "sp"
      ],
      [
        "m",
        "ent"
      ],
      [
        "Ġs",
        "u"
      ],
      [
        "itt",
        "ing"
      ],
      [
        "Ġadventure",
        "s"
      ],
      [
        "is",
        "sed"
      ],
      [
        "id",
        "ge"
      ],
      [
        "Ġn",
        "aught"
      ],
      [
        "Ġmo",
        "ved"
      ],
      [
        "bb",
        "y"
      ],
      [
        "Ġst",
        "re"
      ],
      [
        "Ġk",
        "ite"
      ],
      [
        "Ġwould",
        "n"
      ],
      [
        "Ġbuck",
        "et"
      ],
      [
        "Ġturn",
        "s"
      ],
      [
        "ck",
        "s"
      ],
      [
        "fu",
        "sed"
      ],
      [
        "Ġno",
        "se"
      ],
      [
        "Ġal",
        "ong"
      ],
      [
        "Ġpl",
        "ac"
      ],
      [
        "Ġch",
        "air"
      ],
      [
        "Ġnaught",
        "y"
      ],
      [
        "us",
        "h"
      ],
      [
        "Ġw",
        "he"
      ],
      [
        "itt",
        "y"
      ],
      [
        "Ġexpl",
        "oring"
      ],
      [
        "h",
        "one"
      ],
      [
        "Ġsee",
        "med"
      ],
      [
        "Ġm",
        "ine"
      ],
      [
        "ou",
        "nt"
      ],
      [
        "ĠTh",
        "ank"
      ],
      [
        "Ġto",
        "m"
      ],
      [
        "Ġf",
        "ence"
      ],
      [
        "Ġd",
        "es"
      ],
      [
        "Ġp",
        "ast"
      ],
      [
        "an",
        "ch"
      ],
      [
        "or",
        "s"
      ],
      [
        "Ġbr",
        "anch"
      ],
      [
        "Ġbel",
        "ong"
      ],
      [
        "Ġs",
        "uddenly"
      ],
      [
        "ock",
        "ed"
      ],
      [
        "Ġw",
        "ish"
      ],
      [
        "Ġju",
        "ice"
      ],
      [
        "y",
        "ard"
      ],
      [
        "Ġc",
        "ave"
      ],
      [
        "Ġst",
        "ars"
      ],
      [
        "Ġb",
        "at"
      ],
      [
        "un",
        "g"
      ],
      [
        "Ġback",
        "yard"
      ],
      [
        "D",
        "o"
      ],
      [
        "Ġs",
        "ick"
      ],
      [
        "Ġl",
        "ate"
      ],
      [
        "Ġsing",
        "ing"
      ],
      [
        "Ġm",
        "iss"
      ],
      [
        "Ġex",
        "p"
      ],
      [
        "Ġpre",
        "s"
      ],
      [
        "ĠC",
        "ome"
      ],
      [
        "Ġyou",
        "ng"
      ],
      [
        "Ġo",
        "b"
      ],
      [
        "Ġsh",
        "ook"
      ],
      [
        "itt",
        "ens"
      ],
      [
        "s",
        "y"
      ],
      [
        "Ġd",
        "ist"
      ],
      [
        "Ġwo",
        "ke"
      ],
      [
        "Ġ",
        "es"
      ],
      [
        "Ġw",
        "ise"
      ],
      [
        "Ġta",
        "king"
      ],
      [
        "Ġtr",
        "ou"
      ],
      [
        "t",
        "s"
      ],
      [
        "Ġta",
        "kes"
      ],
      [
        "ll",
        "o"
      ],
      [
        "Ġcom",
        "es"
      ],
      [
        "Ġnear",
        "by"
      ],
      [
        "ĠA",
        "l"
      ],
      [
        "Ġcar",
        "ry"
      ],
      [
        "Ġsound",
        "s"
      ],
      [
        "Ġwonder",
        "ed"
      ],
      [
        "Ġa",
        "f"
      ],
      [
        "co",
        "l"
      ],
      [
        "ĠJen",
        "ny"
      ],
      [
        "a",
        "il"
      ],
      [
        "o",
        "se"
      ],
      [
        "Ġth",
        "ough"
      ],
      [
        "Ġbus",
        "y"
      ],
      [
        "Ġarm",
        "s"
      ],
      [
        "Ġwa",
        "r"
      ],
      [
        "Ġlaug",
        "hing"
      ],
      [
        "Ġma",
        "il"
      ],
      [
        "p",
        "ed"
      ],
      [
        "Ġ",
        "3"
      ],
      [
        "Ġdr",
        "ink"
      ],
      [
        "Ġn",
        "est"
      ],
      [
        "Ġm",
        "ark"
      ],
      [
        "Ġst",
        "u"
      ],
      [
        "Ġt",
        "iny"
      ],
      [
        "Ġp",
        "urp"
      ],
      [
        "ver",
        "ed"
      ],
      [
        "Ġpres",
        "ent"
      ],
      [
        "Ġsun",
        "ny"
      ],
      [
        "Ġben",
        "ch"
      ],
      [
        "Ġm",
        "il"
      ],
      [
        "ion",
        "s"
      ],
      [
        "Ġc",
        "ard"
      ],
      [
        "Ġm",
        "ad"
      ],
      [
        "Ġst",
        "ar"
      ],
      [
        "Ġin",
        "v"
      ],
      [
        "Ġdri",
        "ver"
      ],
      [
        "es",
        "e"
      ],
      [
        "c",
        "es"
      ],
      [
        "Ġb",
        "oun"
      ],
      [
        "ount",
        "ain"
      ],
      [
        "Ġs",
        "itting"
      ],
      [
        "Ġg",
        "igg"
      ],
      [
        "ra",
        "id"
      ],
      [
        "ĠSam",
        "my"
      ],
      [
        "Ġcut",
        "e"
      ],
      [
        "Ġrel",
        "ie"
      ],
      [
        "w",
        "ard"
      ],
      [
        "Ġm",
        "ist"
      ],
      [
        "aught",
        "er"
      ],
      [
        "Ġye",
        "ar"
      ],
      [
        "Ġstor",
        "ies"
      ],
      [
        "Ġaf",
        "raid"
      ],
      [
        "itt",
        "en"
      ],
      [
        "b",
        "all"
      ],
      [
        "g",
        "ged"
      ],
      [
        "Ġp",
        "ower"
      ],
      [
        "Ġj",
        "ar"
      ],
      [
        "Ġco",
        "zy"
      ],
      [
        "Ġr",
        "ound"
      ],
      [
        "Ġwh",
        "ist"
      ],
      [
        "Ġcol",
        "our"
      ],
      [
        "Ġdanc",
        "ed"
      ],
      [
        "Ġpat",
        "ient"
      ],
      [
        "Ġpurp",
        "le"
      ],
      [
        "p",
        "e"
      ],
      [
        "Ġke",
        "y"
      ],
      [
        "Ġsnow",
        "man"
      ],
      [
        "u",
        "ched"
      ],
      [
        "Ġto",
        "uched"
      ],
      [
        "in",
        "ing"
      ],
      [
        "O",
        "f"
      ],
      [
        "Ġhe",
        "llo"
      ],
      [
        "pp",
        "ing"
      ],
      [
        "Ġcreat",
        "ure"
      ],
      [
        "le",
        "t"
      ],
      [
        "sh",
        "ine"
      ],
      [
        "Ġpie",
        "ce"
      ],
      [
        "Ġe",
        "as"
      ],
      [
        "Ġli",
        "ft"
      ],
      [
        "bo",
        "ard"
      ],
      [
        "o",
        "g"
      ],
      [
        "Ġsun",
        "shine"
      ],
      [
        "Ġshap",
        "es"
      ],
      [
        "Ġmil",
        "k"
      ],
      [
        "Ġl",
        "etter"
      ],
      [
        "Ġd",
        "aughter"
      ],
      [
        "th",
        "day"
      ],
      [
        "Ġc",
        "ir"
      ],
      [
        "Ġp",
        "udd"
      ],
      [
        "Ġday",
        "s"
      ],
      [
        "Ġnot",
        "hing"
      ],
      [
        "Ġexc",
        "iting"
      ],
      [
        "H",
        "ey"
      ],
      [
        "Ġswim",
        "ming"
      ],
      [
        "Ġbott",
        "le"
      ],
      [
        "Ġaccident",
        "ally"
      ],
      [
        "t",
        "o"
      ],
      [
        "et",
        "h"
      ],
      [
        "Ġw",
        "ra"
      ],
      [
        "Ġe",
        "gg"
      ],
      [
        "Ġwatch",
        "ing"
      ],
      [
        "st",
        "ing"
      ],
      [
        "Ġli",
        "fe"
      ],
      [
        "Ġb",
        "ought"
      ],
      [
        "Ġc",
        "e"
      ],
      [
        "Ġdis",
        "co"
      ],
      [
        "Ġp",
        "ath"
      ],
      [
        "ĠC",
        "h"
      ],
      [
        "Ġhop",
        "e"
      ],
      [
        "Ġhold",
        "ing"
      ],
      [
        "u",
        "nt"
      ],
      [
        "Ġin",
        "c"
      ],
      [
        "Ġk",
        "ing"
      ],
      [
        "Ġgi",
        "ves"
      ],
      [
        "Ġbus",
        "h"
      ],
      [
        "Ġfar",
        "m"
      ],
      [
        "Ġinst",
        "ead"
      ],
      [
        "G",
        "ood"
      ],
      [
        "Ġint",
        "ere"
      ],
      [
        "ĠM",
        "ittens"
      ],
      [
        "Ġrelie",
        "ved"
      ],
      [
        "p",
        "a"
      ],
      [
        "Ġbir",
        "thday"
      ],
      [
        "Ġgra",
        "nd"
      ],
      [
        "iz",
        "e"
      ],
      [
        "Ġe",
        "ar"
      ],
      [
        "al",
        "m"
      ],
      [
        "Ġjour",
        "ney"
      ],
      [
        "Ġf",
        "ing"
      ],
      [
        "Ġgra",
        "b"
      ],
      [
        "Ġstre",
        "et"
      ],
      [
        "o",
        "st"
      ],
      [
        "ĠS",
        "omet"
      ],
      [
        "n",
        "ess"
      ],
      [
        "Ġim",
        "ag"
      ],
      [
        "Ġf",
        "it"
      ],
      [
        "ad",
        "ow"
      ],
      [
        "Ġcray",
        "ons"
      ],
      [
        "it",
        "y"
      ],
      [
        "ep",
        "end"
      ],
      [
        "Ġany",
        "one"
      ],
      [
        "re",
        "ad"
      ],
      [
        "Ġp",
        "ract"
      ],
      [
        "Ġsmell",
        "ed"
      ],
      [
        "Ġshar",
        "p"
      ],
      [
        "Ġresp",
        "ect"
      ],
      [
        "Ġro",
        "ad"
      ],
      [
        "Ġv",
        "ill"
      ],
      [
        "Ġpe",
        "ace"
      ],
      [
        "Ġtast",
        "y"
      ],
      [
        "f",
        "ish"
      ],
      [
        "Ġl",
        "ucky"
      ],
      [
        "Ġcom",
        "fort"
      ],
      [
        "Ġre",
        "s"
      ],
      [
        "Ġche",
        "ese"
      ],
      [
        "el",
        "s"
      ],
      [
        "Ġk",
        "ick"
      ],
      [
        "Ġsp",
        "o"
      ],
      [
        "Ġsmil",
        "ing"
      ],
      [
        "Ġre",
        "t"
      ],
      [
        "Ġfore",
        "ver"
      ],
      [
        "Ġwr",
        "ite"
      ],
      [
        "oo",
        "se"
      ],
      [
        "Ġsear",
        "ched"
      ],
      [
        "Ġa",
        "ct"
      ],
      [
        "Ġs",
        "ur"
      ],
      [
        "ir",
        "t"
      ],
      [
        "Ġpoin",
        "ted"
      ],
      [
        "Ġon",
        "to"
      ],
      [
        "Ġfe",
        "ather"
      ],
      [
        "Ġc",
        "or"
      ],
      [
        "am",
        "ed"
      ],
      [
        "Ġlo",
        "ves"
      ],
      [
        "Ġhug",
        "e"
      ],
      [
        "Ġkne",
        "e"
      ],
      [
        "Ġroll",
        "ed"
      ],
      [
        "Ġt",
        "un"
      ],
      [
        "Ġfo",
        "ot"
      ],
      [
        "Ġtal",
        "ked"
      ],
      [
        "C",
        "ome"
      ],
      [
        "a",
        "ur"
      ],
      [
        "er",
        "t"
      ],
      [
        "Ġpl",
        "ane"
      ],
      [
        "Ġpu",
        "zz"
      ],
      [
        "Ġco",
        "in"
      ],
      [
        "o",
        "ve"
      ],
      [
        "Ġp",
        "ill"
      ],
      [
        "Ġheal",
        "thy"
      ],
      [
        "Ġret",
        "urn"
      ],
      [
        "Ġk",
        "iss"
      ],
      [
        "ble",
        "m"
      ],
      [
        "ĠK",
        "itty"
      ],
      [
        "Ġl",
        "ater"
      ],
      [
        "Ġad",
        "m"
      ],
      [
        "Ġprom",
        "ise"
      ],
      [
        "Ġpro",
        "blem"
      ],
      [
        "Ġor",
        "gan"
      ],
      [
        "Ġcou",
        "ch"
      ],
      [
        "l",
        "a"
      ],
      [
        "Ġm",
        "ach"
      ],
      [
        "on",
        "t"
      ],
      [
        "Ġcoll",
        "ect"
      ],
      [
        "Ġpers",
        "on"
      ],
      [
        "Ġwa",
        "ve"
      ],
      [
        "ĠW",
        "ith"
      ],
      [
        "ĠTo",
        "gether"
      ],
      [
        "Ġa",
        "p"
      ],
      [
        "Ġsa",
        "ck"
      ],
      [
        "it",
        "ch"
      ],
      [
        "Ġput",
        "s"
      ],
      [
        "Ġapp",
        "les"
      ],
      [
        "Ġtast",
        "ed"
      ],
      [
        "Ġte",
        "ach"
      ],
      [
        "Ġfr",
        "ont"
      ],
      [
        "Ġz",
        "oom"
      ],
      [
        "Ġg",
        "ather"
      ],
      [
        "Ġcloud",
        "s"
      ],
      [
        "Ġe",
        "ag"
      ],
      [
        "Ġintere",
        "sting"
      ],
      [
        "Ġw",
        "ild"
      ],
      [
        "Ġh",
        "or"
      ],
      [
        "Ġr",
        "ope"
      ],
      [
        "Ġh",
        "oney"
      ],
      [
        "Ġstor",
        "m"
      ],
      [
        "Ġgent",
        "ly"
      ],
      [
        "ĠB",
        "e"
      ],
      [
        "Ġc",
        "ow"
      ],
      [
        "Ġbre",
        "ad"
      ],
      [
        "Ġro",
        "b"
      ],
      [
        "Ġco",
        "at"
      ],
      [
        "Ġwho",
        "le"
      ],
      [
        "Ġmy",
        "ster"
      ],
      [
        "Ġs",
        "uc"
      ],
      [
        "Ġpr",
        "ot"
      ],
      [
        "Ġsand",
        "w"
      ],
      [
        "Ġpus",
        "h"
      ],
      [
        "ĠEm",
        "ily"
      ],
      [
        "Ġp",
        "ass"
      ],
      [
        "ce",
        "an"
      ],
      [
        "Ġas",
        "h"
      ],
      [
        "Ġbutt",
        "on"
      ],
      [
        "Ġplac",
        "es"
      ],
      [
        "c",
        "ed"
      ],
      [
        "Ġo",
        "cean"
      ],
      [
        "if",
        "e"
      ],
      [
        "Ġsa",
        "f"
      ],
      [
        "Ġas",
        "leep"
      ],
      [
        "Ġhelp",
        "ful"
      ],
      [
        "iz",
        "z"
      ],
      [
        "Ġbuild",
        "ing"
      ],
      [
        "Ġspl",
        "as"
      ],
      [
        "Ġscream",
        "ed"
      ],
      [
        "a",
        "le"
      ],
      [
        "Ġ",
        "ent"
      ],
      [
        "Ġimp",
        "re"
      ],
      [
        "Ġneighb",
        "or"
      ],
      [
        "Ġrob",
        "ot"
      ],
      [
        "ĠH",
        "ow"
      ],
      [
        "Ġw",
        "ide"
      ],
      [
        "Ġsp",
        "id"
      ],
      [
        "Ġsp",
        "icy"
      ],
      [
        "Ġme",
        "et"
      ],
      [
        "Ġlove",
        "ly"
      ],
      [
        "Ġwait",
        "ing"
      ],
      [
        "Ġprot",
        "ect"
      ],
      [
        "Ġp",
        "ar"
      ],
      [
        "Ġo",
        "ven"
      ],
      [
        "Ġsc",
        "ar"
      ],
      [
        "Ġz",
        "oo"
      ],
      [
        "ĠG",
        "o"
      ],
      [
        "Ġb",
        "ark"
      ],
      [
        "Ġl",
        "ad"
      ],
      [
        "Ġsl",
        "id"
      ],
      [
        "Ġqu",
        "est"
      ],
      [
        "Ġpretend",
        "ed"
      ],
      [
        "Ġem",
        "b"
      ],
      [
        "Ġd",
        "i"
      ],
      [
        "Ġp",
        "ool"
      ],
      [
        "Ġrock",
        "et"
      ],
      [
        "Ġwear",
        "ing"
      ],
      [
        "Ġche",
        "er"
      ],
      [
        "Ġtal",
        "king"
      ],
      [
        "Ġforg",
        "ive"
      ],
      [
        "Ġtrou",
        "ble"
      ],
      [
        "Ġs",
        "er"
      ],
      [
        "Ġsh",
        "ining"
      ],
      [
        "Ġgo",
        "es"
      ],
      [
        "Ġwor",
        "m"
      ],
      [
        "ĠM",
        "ummy"
      ],
      [
        "Ġn",
        "ut"
      ],
      [
        "Ġth",
        "in"
      ],
      [
        "Ġst",
        "ir"
      ],
      [
        "Ġsh",
        "r"
      ],
      [
        "Ġp",
        "ile"
      ],
      [
        "ch",
        "ing"
      ],
      [
        "as",
        "er"
      ],
      [
        "Ġfa",
        "ces"
      ],
      [
        "Ġmin",
        "ut"
      ],
      [
        "Ġsu",
        "pp"
      ],
      [
        "Ġp",
        "op"
      ],
      [
        "Ġcon",
        "fused"
      ],
      [
        "Ġfl",
        "ut"
      ],
      [
        "Ġtri",
        "p"
      ],
      [
        "ĠSomet",
        "imes"
      ],
      [
        "Ġw",
        "om"
      ],
      [
        "Ġmu",
        "d"
      ],
      [
        "is",
        "a"
      ],
      [
        "ar",
        "ra"
      ],
      [
        "Ġdel",
        "ight"
      ],
      [
        "Ġp",
        "our"
      ],
      [
        "Ġemb",
        "arra"
      ],
      [
        "Ġwom",
        "an"
      ],
      [
        "Ġb",
        "al"
      ],
      [
        "ow",
        "ed"
      ],
      [
        "Ġwh",
        "ich"
      ],
      [
        "Ġsp",
        "ent"
      ],
      [
        "Ġduck",
        "s"
      ],
      [
        "Ġsong",
        "s"
      ],
      [
        "Ġlad",
        "der"
      ],
      [
        "T",
        "om"
      ],
      [
        "ĠS",
        "ome"
      ],
      [
        "ur",
        "se"
      ],
      [
        "ĠP",
        "eter"
      ],
      [
        "Ġgi",
        "ant"
      ],
      [
        "Ġg",
        "un"
      ],
      [
        "ir",
        "d"
      ],
      [
        "Ġst",
        "ep"
      ],
      [
        "Ġfin",
        "ish"
      ],
      [
        "er",
        "y"
      ],
      [
        "Ġre",
        "c"
      ],
      [
        "Ġch",
        "ick"
      ],
      [
        "ul",
        "ar"
      ],
      [
        "u",
        "b"
      ],
      [
        "Ġh",
        "on"
      ],
      [
        "Ġp",
        "hone"
      ],
      [
        "Ġfe",
        "et"
      ],
      [
        "Ġcho",
        "col"
      ],
      [
        "Ġpudd",
        "le"
      ],
      [
        "Ġtr",
        "ust"
      ],
      [
        "Ġvill",
        "age"
      ],
      [
        "Ġcor",
        "ner"
      ],
      [
        "Ġb",
        "lew"
      ],
      [
        "Ġsh",
        "y"
      ],
      [
        "get",
        "able"
      ],
      [
        "bble",
        "s"
      ],
      [
        "ar",
        "ge"
      ],
      [
        "um",
        "ber"
      ],
      [
        "Ġve",
        "getable"
      ],
      [
        "Ġhor",
        "se"
      ],
      [
        "Ġtom",
        "orrow"
      ],
      [
        "Ġa",
        "nt"
      ],
      [
        "ĠL",
        "isa"
      ],
      [
        "Ġcle",
        "ver"
      ],
      [
        "Ġl",
        "ay"
      ],
      [
        "Ġc",
        "art"
      ],
      [
        "Ġe",
        "ventually"
      ],
      [
        "Ġspot",
        "ted"
      ],
      [
        "Ġ",
        "'"
      ],
      [
        "Ġsa",
        "l"
      ],
      [
        "le",
        "br"
      ],
      [
        "Ġk",
        "itten"
      ],
      [
        "Ġfix",
        "ed"
      ],
      [
        "Ġchocol",
        "ate"
      ],
      [
        "Ġsn",
        "ake"
      ],
      [
        "Ġhid",
        "ing"
      ],
      [
        "Ġce",
        "lebr"
      ],
      [
        "Ġc",
        "oo"
      ],
      [
        "Ġn",
        "et"
      ],
      [
        "Ġdri",
        "ve"
      ],
      [
        "ĠWh",
        "ile"
      ],
      [
        "t",
        "op"
      ],
      [
        "Ġw",
        "ip"
      ],
      [
        "Ġr",
        "ing"
      ],
      [
        "Ġse",
        "at"
      ],
      [
        "Ġcl",
        "oth"
      ],
      [
        "Ġte",
        "eth"
      ],
      [
        "e",
        "b"
      ],
      [
        "er",
        "ly"
      ],
      [
        "Ġwas",
        "h"
      ],
      [
        "Ġmat",
        "ter"
      ],
      [
        "Ġ",
        "ign"
      ],
      [
        "at",
        "o"
      ],
      [
        "Ġsp",
        "in"
      ],
      [
        "Ġle",
        "m"
      ],
      [
        "Ġfo",
        "ld"
      ],
      [
        "Ġtast",
        "e"
      ],
      [
        "Ġsh",
        "irt"
      ],
      [
        "n",
        "ot"
      ],
      [
        "o",
        "ld"
      ],
      [
        "Ġst",
        "ret"
      ],
      [
        "Ġcan",
        "not"
      ],
      [
        "Ġwhen",
        "ever"
      ],
      [
        "Ġrem",
        "ind"
      ],
      [
        "anc",
        "y"
      ],
      [
        "Ġru",
        "de"
      ],
      [
        "Ġsee",
        "k"
      ],
      [
        "Ġla",
        "st"
      ],
      [
        "Ġembarra",
        "ssed"
      ],
      [
        "Ġb",
        "an"
      ],
      [
        "Ġl",
        "arge"
      ],
      [
        "Ġc",
        "alm"
      ],
      [
        "ig",
        "hed"
      ],
      [
        "nn",
        "y"
      ],
      [
        "Ġtri",
        "es"
      ],
      [
        "Ġdir",
        "t"
      ],
      [
        "Ġhe",
        "ars"
      ],
      [
        "Ġapp",
        "eared"
      ],
      [
        "Ġbug",
        "s"
      ],
      [
        "n",
        "ic"
      ],
      [
        "Åĵ",
        "I"
      ],
      [
        "Ġmach",
        "ine"
      ],
      [
        "Ġt",
        "est"
      ],
      [
        "Ġpic",
        "nic"
      ],
      [
        "Ġcarrot",
        "s"
      ],
      [
        "M",
        "y"
      ],
      [
        "ĠJoh",
        "nny"
      ],
      [
        "Ġcook",
        "ie"
      ],
      [
        "Ġfur",
        "ry"
      ],
      [
        "Ġspid",
        "er"
      ],
      [
        "Ġstick",
        "s"
      ],
      [
        "le",
        "x"
      ],
      [
        "Ġshe",
        "ll"
      ],
      [
        "Ġshe",
        "lf"
      ],
      [
        "Ġli",
        "ve"
      ],
      [
        "Ġsmo",
        "oth"
      ],
      [
        "Ġh",
        "ar"
      ],
      [
        "Ġbe",
        "ll"
      ],
      [
        "Ġso",
        "l"
      ],
      [
        "Ġte",
        "a"
      ],
      [
        "Ġansw",
        "er"
      ],
      [
        "Ġhe",
        "l"
      ],
      [
        "Ġm",
        "ind"
      ],
      [
        "Ġfor",
        "ward"
      ],
      [
        "ĠP",
        "lease"
      ],
      [
        "Ġspl",
        "ash"
      ],
      [
        "g",
        "ly"
      ],
      [
        "Ġm",
        "aybe"
      ],
      [
        "ll",
        "a"
      ],
      [
        "Ġtoo",
        "l"
      ],
      [
        "Ġpa",
        "w"
      ],
      [
        "Ġneck",
        "l"
      ],
      [
        "h",
        "in"
      ],
      [
        "Ġu",
        "gly"
      ],
      [
        "bo",
        "x"
      ],
      [
        "ĠT",
        "V"
      ],
      [
        "Ġm",
        "ed"
      ],
      [
        "Ġg",
        "as"
      ],
      [
        "g",
        "round"
      ],
      [
        "Ġp",
        "in"
      ],
      [
        "Ġro",
        "ar"
      ],
      [
        "d",
        "en"
      ],
      [
        "ĠL",
        "e"
      ],
      [
        "al",
        "s"
      ],
      [
        "Ġme",
        "ant"
      ],
      [
        "Ġcar",
        "ried"
      ],
      [
        "Ġmo",
        "on"
      ],
      [
        "Ġtell",
        "s"
      ],
      [
        "Ġem",
        "p"
      ],
      [
        "Ġf",
        "ancy"
      ],
      [
        "Ġm",
        "ot"
      ],
      [
        "Ġfl",
        "ag"
      ],
      [
        "air",
        "s"
      ],
      [
        "Ġbar",
        "ked"
      ],
      [
        "ĠAl",
        "ice"
      ],
      [
        "Ġst",
        "ood"
      ],
      [
        "ĠJ",
        "ake"
      ],
      [
        "Ġemp",
        "ty"
      ],
      [
        "Ġb",
        "urn"
      ],
      [
        "Ġsp",
        "e"
      ],
      [
        "Ġpol",
        "ite"
      ],
      [
        "Ġspark",
        "ly"
      ],
      [
        "Ġspr",
        "ay"
      ],
      [
        "Ġsh",
        "ip"
      ],
      [
        "Ġv",
        "al"
      ],
      [
        "Ġfight",
        "ing"
      ],
      [
        "n",
        "ed"
      ],
      [
        "Ġ",
        "que"
      ],
      [
        "Ġm",
        "ountain"
      ],
      [
        "Ġsa",
        "ve"
      ],
      [
        "Ġkn",
        "ocked"
      ],
      [
        "Ġscar",
        "f"
      ],
      [
        "i",
        "an"
      ],
      [
        "Ġs",
        "el"
      ],
      [
        "Ġjump",
        "ing"
      ],
      [
        "ul",
        "t"
      ],
      [
        "Ġtight",
        "ly"
      ],
      [
        "Ġcreat",
        "ive"
      ],
      [
        "ĠS",
        "us"
      ],
      [
        "pp",
        "er"
      ],
      [
        "Ġsp",
        "read"
      ],
      [
        "o",
        "bby"
      ],
      [
        "v",
        "ous"
      ],
      [
        "Ġbl",
        "ow"
      ],
      [
        "Ġt",
        "id"
      ],
      [
        "ĠW",
        "hy"
      ],
      [
        "our",
        "s"
      ],
      [
        "Ġland",
        "ed"
      ],
      [
        "c",
        "hes"
      ],
      [
        "Ġp",
        "izz"
      ],
      [
        "Ġkn",
        "ight"
      ],
      [
        "ump",
        "y"
      ],
      [
        "Ġdre",
        "w"
      ],
      [
        "o",
        "in"
      ],
      [
        "Ġw",
        "ore"
      ],
      [
        "Ġp",
        "ir"
      ],
      [
        "Ġhid",
        "den"
      ],
      [
        "Ġneckl",
        "ace"
      ],
      [
        "y",
        "m"
      ],
      [
        "Ġc",
        "age"
      ],
      [
        "Ġc",
        "ross"
      ],
      [
        "Ġch",
        "ased"
      ],
      [
        "Ġgre",
        "w"
      ],
      [
        "Ġstr",
        "ing"
      ],
      [
        "Ġtreat",
        "s"
      ],
      [
        "Ġmyster",
        "ious"
      ],
      [
        "Ġban",
        "an"
      ],
      [
        "y",
        "ing"
      ],
      [
        "it",
        "al"
      ],
      [
        "Ġg",
        "ar"
      ],
      [
        "Ġgr",
        "oup"
      ],
      [
        "Ġcra",
        "b"
      ],
      [
        "Ġshar",
        "ing"
      ],
      [
        "Ġwhist",
        "le"
      ],
      [
        "Ġash",
        "amed"
      ],
      [
        "Ġho",
        "sp"
      ],
      [
        "Ġpuzz",
        "le"
      ],
      [
        "Ġp",
        "ri"
      ],
      [
        "Ġdec",
        "or"
      ],
      [
        "Ġyell",
        "ed"
      ],
      [
        "c",
        "y"
      ],
      [
        "c",
        "ap"
      ],
      [
        "Ġh",
        "um"
      ],
      [
        "Ġg",
        "en"
      ],
      [
        "Ġv",
        "ase"
      ],
      [
        "ung",
        "le"
      ],
      [
        "Ġhosp",
        "ital"
      ],
      [
        "a",
        "king"
      ],
      [
        "d",
        "le"
      ],
      [
        "ĠT",
        "eddy"
      ],
      [
        "Ġp",
        "le"
      ],
      [
        "Ġn",
        "er"
      ],
      [
        "on",
        "es"
      ],
      [
        "Ġdisapp",
        "oin"
      ],
      [
        "Ġque",
        "en"
      ],
      [
        "c",
        "er"
      ],
      [
        "Ġ",
        "Z"
      ],
      [
        "ĠL",
        "ittle"
      ],
      [
        "Ġj",
        "ungle"
      ],
      [
        "iz",
        "zy"
      ],
      [
        "Ġsel",
        "fish"
      ],
      [
        "Ġthe",
        "se"
      ],
      [
        "Ġbre",
        "ath"
      ],
      [
        "Ġsleep",
        "y"
      ],
      [
        "Ġner",
        "vous"
      ],
      [
        "Ġs",
        "our"
      ],
      [
        "er",
        "a"
      ],
      [
        "is",
        "p"
      ],
      [
        "Ġcle",
        "ar"
      ],
      [
        "ĠE",
        "ven"
      ],
      [
        "ĠEvery",
        "where"
      ],
      [
        "Ġche",
        "st"
      ],
      [
        "ĠSus",
        "ie"
      ],
      [
        "d",
        "ge"
      ],
      [
        "Ġc",
        "ries"
      ],
      [
        "Ġno",
        "ds"
      ],
      [
        "Ġgr",
        "ay"
      ],
      [
        "Ġpower",
        "ful"
      ],
      [
        "Ġmot",
        "or"
      ],
      [
        "Ġre",
        "g"
      ],
      [
        "Ġvegetable",
        "s"
      ],
      [
        "S",
        "top"
      ],
      [
        "f",
        "l"
      ],
      [
        "ell",
        "a"
      ],
      [
        "Ġm",
        "issed"
      ],
      [
        "Ġst",
        "ra"
      ],
      [
        "Ġstand",
        "ing"
      ],
      [
        "Ġpill",
        "ow"
      ],
      [
        "Ġlem",
        "on"
      ],
      [
        "Ġche",
        "w"
      ],
      [
        "Ġgigg",
        "led"
      ],
      [
        "Ġa",
        "v"
      ],
      [
        "Ġb",
        "ored"
      ],
      [
        "an",
        "o"
      ],
      [
        "Ġsnack",
        "s"
      ],
      [
        "W",
        "here"
      ],
      [
        "Ġbr",
        "idge"
      ],
      [
        "Ġgar",
        "age"
      ],
      [
        "er",
        "ry"
      ],
      [
        "on",
        "y"
      ],
      [
        "Ġgo",
        "ld"
      ],
      [
        "Ġfe",
        "ed"
      ],
      [
        "Ġpr",
        "ay"
      ],
      [
        "Ġpizz",
        "a"
      ],
      [
        "Ġdisappoin",
        "ted"
      ],
      [
        "or",
        "ry"
      ],
      [
        "itt",
        "er"
      ],
      [
        "Ġwh",
        "isp"
      ],
      [
        "Ġdanc",
        "ing"
      ],
      [
        "Ġje",
        "w"
      ],
      [
        "p",
        "ack"
      ],
      [
        "Ġme",
        "adow"
      ],
      [
        "ust",
        "r"
      ],
      [
        "Ġdr",
        "um"
      ],
      [
        "l",
        "ight"
      ],
      [
        "Ġeas",
        "y"
      ],
      [
        "Ġh",
        "ur"
      ],
      [
        "Ġsc",
        "r"
      ],
      [
        "et",
        "s"
      ],
      [
        "Ġst",
        "one"
      ],
      [
        "Ġse",
        "ed"
      ],
      [
        "Ġcir",
        "c"
      ],
      [
        "Ġt",
        "ick"
      ],
      [
        "un",
        "k"
      ],
      [
        "Ġbec",
        "ome"
      ],
      [
        "Ġpeace",
        "ful"
      ],
      [
        "B",
        "en"
      ],
      [
        "Ġs",
        "que"
      ],
      [
        "Ġc",
        "ap"
      ],
      [
        "Ġlea",
        "f"
      ],
      [
        "ens",
        "ive"
      ],
      [
        "Ġb",
        "one"
      ],
      [
        "er",
        "p"
      ],
      [
        "Ġsa",
        "ved"
      ],
      [
        "ĠD",
        "on"
      ],
      [
        "Ġte",
        "ars"
      ],
      [
        "Ġbath",
        "room"
      ],
      [
        "Ġexp",
        "ensive"
      ],
      [
        "Ġminut",
        "es"
      ],
      [
        "Ġgen",
        "er"
      ],
      [
        "P",
        "lease"
      ],
      [
        "Ġc",
        "ri"
      ],
      [
        "Ġc",
        "and"
      ],
      [
        "Ġfr",
        "ustr"
      ],
      [
        "eter",
        "m"
      ],
      [
        "Ġfing",
        "er"
      ],
      [
        "Ġpl",
        "ate"
      ],
      [
        "Ġknow",
        "ing"
      ],
      [
        "Ġsail",
        "ed"
      ],
      [
        "Ġpol",
        "ice"
      ],
      [
        "Ġf",
        "il"
      ],
      [
        "Ġd",
        "eterm"
      ],
      [
        "et",
        "e"
      ],
      [
        "ĠO",
        "K"
      ],
      [
        "Ġcl",
        "own"
      ],
      [
        "Ġunderst",
        "ood"
      ],
      [
        "m",
        "ost"
      ],
      [
        "Ġl",
        "ine"
      ],
      [
        "Ġp",
        "an"
      ],
      [
        "ĠB",
        "u"
      ],
      [
        "ĠB",
        "ella"
      ],
      [
        "Ġfe",
        "ar"
      ],
      [
        "Ġru",
        "ined"
      ],
      [
        "Ġleg",
        "s"
      ],
      [
        "Ġt",
        "ag"
      ],
      [
        "Ġh",
        "ours"
      ],
      [
        "ce",
        "pt"
      ],
      [
        "Ġsweet",
        "ie"
      ],
      [
        "Ġspo",
        "il"
      ],
      [
        "t",
        "i"
      ],
      [
        "Ġwe",
        "ek"
      ],
      [
        "Ġbo",
        "ard"
      ],
      [
        "Ġmat",
        "ch"
      ],
      [
        "Ġplant",
        "s"
      ],
      [
        "Ġsuc",
        "cess"
      ],
      [
        "A",
        "re"
      ],
      [
        "Ġf",
        "ig"
      ],
      [
        "Ġm",
        "ic"
      ],
      [
        "ĠB",
        "r"
      ],
      [
        "Ġtid",
        "y"
      ],
      [
        "Ġwa",
        "ves"
      ],
      [
        "Ġsh",
        "ore"
      ],
      [
        "Ġal",
        "most"
      ],
      [
        "Ġta",
        "ught"
      ],
      [
        "eci",
        "ally"
      ],
      [
        "ĠR",
        "ex"
      ],
      [
        "Ġfrustr",
        "ated"
      ],
      [
        "p",
        "ecially"
      ],
      [
        "Ġwa",
        "gged"
      ],
      [
        "at",
        "es"
      ],
      [
        "Ġas",
        "king"
      ],
      [
        "Ġmess",
        "y"
      ],
      [
        "ĠTo",
        "day"
      ],
      [
        "ĠTweet",
        "y"
      ],
      [
        "Ġes",
        "pecially"
      ],
      [
        "W",
        "h"
      ],
      [
        "Ġf",
        "ake"
      ],
      [
        "Ġg",
        "ate"
      ],
      [
        "Ġr",
        "id"
      ],
      [
        "Ġdraw",
        "ing"
      ],
      [
        "u",
        "al"
      ],
      [
        "oo",
        "f"
      ],
      [
        "Ġplay",
        "ground"
      ],
      [
        "Ġcl",
        "ap"
      ],
      [
        "Ġflut",
        "e"
      ],
      [
        "Ġgener",
        "ous"
      ],
      [
        "ĠS",
        "t"
      ],
      [
        "Ġexc",
        "ite"
      ],
      [
        "Ġha",
        "ng"
      ],
      [
        "ill",
        "ed"
      ],
      [
        "Ġme",
        "asure"
      ],
      [
        "Ġfl",
        "uffy"
      ],
      [
        "Ġball",
        "s"
      ],
      [
        "Ġho",
        "pping"
      ],
      [
        "Ġtr",
        "ue"
      ],
      [
        "Ġansw",
        "ered"
      ],
      [
        "Ġhon",
        "est"
      ],
      [
        "ĠLe",
        "o"
      ],
      [
        "o",
        "nd"
      ],
      [
        "at",
        "or"
      ],
      [
        "ig",
        "er"
      ],
      [
        "Ġex",
        "am"
      ],
      [
        "Ġle",
        "ad"
      ],
      [
        "Ġyour",
        "self"
      ],
      [
        "Ġmist",
        "ake"
      ],
      [
        "Ġb",
        "oring"
      ],
      [
        "Ġget",
        "s"
      ],
      [
        "sel",
        "ves"
      ],
      [
        "Ġpo",
        "or"
      ],
      [
        "Ġhurt",
        "s"
      ],
      [
        "Ġt",
        "ie"
      ],
      [
        "Ġd",
        "est"
      ],
      [
        "Ġp",
        "as"
      ],
      [
        "Ġwe",
        "ak"
      ],
      [
        "ĠP",
        "ete"
      ],
      [
        "Ġcomfort",
        "able"
      ],
      [
        "Ġexcite",
        "ment"
      ],
      [
        "Ġpas",
        "sed"
      ],
      [
        "l",
        "and"
      ],
      [
        "m",
        "b"
      ],
      [
        "Ġl",
        "it"
      ],
      [
        "os",
        "aur"
      ],
      [
        "Ġtun",
        "n"
      ],
      [
        "N",
        "ow"
      ],
      [
        "Ġs",
        "ighed"
      ],
      [
        "re",
        "en"
      ],
      [
        "Ġo",
        "ft"
      ],
      [
        "Ġr",
        "ad"
      ],
      [
        "Ġk",
        "issed"
      ],
      [
        "Ġan",
        "g"
      ],
      [
        "art",
        "h"
      ],
      [
        "Ġcat",
        "erp"
      ],
      [
        "Ġgr",
        "umpy"
      ],
      [
        "ĠBob",
        "o"
      ],
      [
        "Ġoft",
        "en"
      ],
      [
        "Ġcaterp",
        "ill"
      ],
      [
        "Ġa",
        "dd"
      ],
      [
        "ot",
        "s"
      ],
      [
        "Ġfruit",
        "s"
      ],
      [
        "u",
        "ce"
      ],
      [
        "Ġmo",
        "ving"
      ],
      [
        "Ġs",
        "ug"
      ],
      [
        "Ġm",
        "id"
      ],
      [
        "Ġn",
        "umber"
      ],
      [
        "Ġso",
        "ap"
      ],
      [
        "ĠD",
        "ucky"
      ],
      [
        "Ġfr",
        "idge"
      ],
      [
        "Ġt",
        "ent"
      ],
      [
        "Ġst",
        "uff"
      ],
      [
        "ĠB",
        "obby"
      ],
      [
        "Ġso",
        "ld"
      ],
      [
        "ell",
        "y"
      ],
      [
        "Ġreturn",
        "ed"
      ],
      [
        "'",
        "d"
      ],
      [
        "ĠB",
        "l"
      ],
      [
        "Ġkn",
        "ife"
      ],
      [
        "Ġta",
        "ken"
      ],
      [
        "Ġsplas",
        "hed"
      ],
      [
        "Ġbal",
        "ance"
      ],
      [
        "Ġw",
        "is"
      ],
      [
        "Ġtruck",
        "s"
      ],
      [
        "iss",
        "ors"
      ],
      [
        "Ġcaterpill",
        "ar"
      ],
      [
        "Ġlo",
        "g"
      ],
      [
        "Ġsp",
        "end"
      ],
      [
        "Ġprin",
        "ce"
      ],
      [
        "Ġmight",
        "y"
      ],
      [
        "Ġdisapp",
        "eared"
      ],
      [
        "Ġgather",
        "ed"
      ],
      [
        "Ġsug",
        "ar"
      ],
      [
        "Ġmid",
        "dle"
      ],
      [
        "S",
        "orry"
      ],
      [
        "T",
        "im"
      ],
      [
        "Ġwa",
        "gon"
      ],
      [
        "an",
        "ut"
      ],
      [
        "el",
        "p"
      ],
      [
        "Ġj",
        "am"
      ],
      [
        "Ġcl",
        "ass"
      ],
      [
        "Ġsc",
        "issors"
      ],
      [
        "Ġgl",
        "ue"
      ],
      [
        "Ġwalk",
        "s"
      ],
      [
        "Ġple",
        "ased"
      ],
      [
        "Ġ",
        "er"
      ],
      [
        "Ġm",
        "ummy"
      ],
      [
        "Ġp",
[...]
